{
  "algo": "spectralbpe",
  "seed": 0,
  "num_merges": 1013,
  "merges": [
    [
      "t",
      "h"
    ],
    [
      "th",
      "e</w>"
    ],
    [
      "i",
      "n"
    ],
    [
      "a",
      "n"
    ],
    [
      "e",
      "d</w>"
    ],
    [
      "e",
      "r"
    ],
    [
      "r",
      "e"
    ],
    [
      "a",
      "r"
    ],
    [
      "t",
      "i"
    ],
    [
      "o",
      "n"
    ],
    [
      "e",
      "n"
    ],
    [
      "e",
      "r</w>"
    ],
    [
      "an",
      "d</w>"
    ],
    [
      "o",
      "r"
    ],
    [
      "o",
      "f</w>"
    ],
    [
      "o",
      "n</w>"
    ],
    [
      "in",
      "g</w>"
    ],
    [
      "i",
      "n</w>"
    ],
    [
      "o",
      "u"
    ],
    [
      "t",
      "o</w>"
    ],
    [
      "a",
      "l"
    ],
    [
      "a",
      "s</w>"
    ],
    [
      "i",
      "t"
    ],
    [
      "s",
      "t"
    ],
    [
      "a",
      "t"
    ],
    [
      "e",
      "s</w>"
    ],
    [
      "r",
      "o"
    ],
    [
      "h",
      "i"
    ],
    [
      "a",
      "c"
    ],
    [
      "h",
      "e</w>"
    ],
    [
      "a",
      "l</w>"
    ],
    [
      "s",
      "i"
    ],
    [
      "a",
      "t</w>"
    ],
    [
      "a",
      "n</w>"
    ],
    [
      "e",
      "l"
    ],
    [
      "r",
      "i"
    ],
    [
      "o",
      "r</w>"
    ],
    [
      "s",
      "t</w>"
    ],
    [
      "e",
      "c"
    ],
    [
      "o",
      "m"
    ],
    [
      "w",
      "as</w>"
    ],
    [
      "i",
      "l"
    ],
    [
      "u",
      "r"
    ],
    [
      "a",
      "m"
    ],
    [
      "e",
      "n</w>"
    ],
    [
      "l",
      "i"
    ],
    [
      "d",
      "i"
    ],
    [
      "e",
      "a"
    ],
    [
      "ti",
      "on</w>"
    ],
    [
      "l",
      "y</w>"
    ],
    [
      "@",
      "-"
    ],
    [
      "@-",
      "@</w>"
    ],
    [
      "T",
      "he</w>"
    ],
    [
      "o",
      "l"
    ],
    [
      "i",
      "c"
    ],
    [
      "l",
      "a"
    ],
    [
      "l",
      "e</w>"
    ],
    [
      "e",
      "m"
    ],
    [
      "i",
      "s</w>"
    ],
    [
      "e",
      "s"
    ],
    [
      "r",
      "a"
    ],
    [
      "h",
      "a"
    ],
    [
      "'",
      "s</w>"
    ],
    [
      "u",
      "n"
    ],
    [
      "th",
      "at</w>"
    ],
    [
      "l",
      "o"
    ],
    [
      "it",
      "h</w>"
    ],
    [
      "f",
      "or</w>"
    ],
    [
      "i",
      "s"
    ],
    [
      "v",
      "e</w>"
    ],
    [
      "en",
      "t</w>"
    ],
    [
      "i",
      "r"
    ],
    [
      "e",
      "t"
    ],
    [
      "b",
      "y</w>"
    ],
    [
      "w",
      "ith</w>"
    ],
    [
      "e",
      "v"
    ],
    [
      "c",
      "h</w>"
    ],
    [
      "c",
      "h"
    ],
    [
      "s",
      "u"
    ],
    [
      "c",
      "on"
    ],
    [
      "en",
      "t"
    ],
    [
      "er",
      "e</w>"
    ],
    [
      "a",
      "g"
    ],
    [
      "p",
      "o"
    ],
    [
      "a",
      "s"
    ],
    [
      "c",
      "e</w>"
    ],
    [
      "er",
      "s</w>"
    ],
    [
      "a",
      "d"
    ],
    [
      "1",
      "9"
    ],
    [
      "b",
      "e"
    ],
    [
      "p",
      "ro"
    ],
    [
      "hi",
      "s</w>"
    ],
    [
      "b",
      "u"
    ],
    [
      "f",
      "or"
    ],
    [
      "ou",
      "n"
    ],
    [
      "g",
      "h"
    ],
    [
      "d",
      "e"
    ],
    [
      "o",
      "v"
    ],
    [
      "c",
      "om"
    ],
    [
      "o",
      "w"
    ],
    [
      "w",
      "h"
    ],
    [
      "t",
      "h</w>"
    ],
    [
      "s",
      "e</w>"
    ],
    [
      "ro",
      "m</w>"
    ],
    [
      "th",
      "e"
    ],
    [
      "ti",
      "on"
    ],
    [
      "e",
      "x"
    ],
    [
      "a",
      "b"
    ],
    [
      "f",
      "rom</w>"
    ],
    [
      "t",
      "ed</w>"
    ],
    [
      "o",
      "p"
    ],
    [
      "s",
      "p"
    ],
    [
      "i",
      "t</w>"
    ],
    [
      "v",
      "i"
    ],
    [
      "a",
      "p"
    ],
    [
      "a",
      "tion</w>"
    ],
    [
      "s",
      "h"
    ],
    [
      "2",
      "0"
    ],
    [
      "t",
      "er</w>"
    ],
    [
      "t",
      "s</w>"
    ],
    [
      "w",
      "hi"
    ],
    [
      "n",
      "o"
    ],
    [
      "a",
      "y</w>"
    ],
    [
      "w",
      "ere</w>"
    ],
    [
      "e",
      "ar"
    ],
    [
      "d",
      "s</w>"
    ],
    [
      "i",
      "m"
    ],
    [
      "o",
      "o"
    ],
    [
      "th",
      "er</w>"
    ],
    [
      "r",
      "u"
    ],
    [
      "q",
      "u"
    ],
    [
      "d",
      "u"
    ],
    [
      "e",
      "p"
    ],
    [
      "at",
      "e</w>"
    ],
    [
      "l",
      "e"
    ],
    [
      "d",
      "ed</w>"
    ],
    [
      "p",
      "re"
    ],
    [
      "t",
      "er"
    ],
    [
      "p",
      "er"
    ],
    [
      "f",
      "f"
    ],
    [
      "l",
      "u"
    ],
    [
      "d",
      "ing</w>"
    ],
    [
      "at",
      "ed</w>"
    ],
    [
      "d",
      "e</w>"
    ],
    [
      "s",
      "ed</w>"
    ],
    [
      "it",
      "y</w>"
    ],
    [
      "in",
      "g"
    ],
    [
      "u",
      "l"
    ],
    [
      "l",
      "d</w>"
    ],
    [
      "ha",
      "d</w>"
    ],
    [
      "re",
      "c"
    ],
    [
      "am",
      "e</w>"
    ],
    [
      "c",
      "i"
    ],
    [
      "m",
      "a"
    ],
    [
      "m",
      "o"
    ],
    [
      "I",
      "n</w>"
    ],
    [
      "i",
      "r</w>"
    ],
    [
      "t",
      "a"
    ],
    [
      "whi",
      "ch</w>"
    ],
    [
      "s",
      "e"
    ],
    [
      "p",
      "l"
    ],
    [
      "on",
      "e</w>"
    ],
    [
      "n",
      "e"
    ],
    [
      "b",
      "er</w>"
    ],
    [
      "al",
      "l</w>"
    ],
    [
      "ar",
      "e</w>"
    ],
    [
      "b",
      "e</w>"
    ],
    [
      "r",
      "an"
    ],
    [
      "w",
      "e"
    ],
    [
      "p",
      "ar"
    ],
    [
      "g",
      "e</w>"
    ],
    [
      "al",
      "ly</w>"
    ],
    [
      "S",
      "t"
    ],
    [
      "ou",
      "t</w>"
    ],
    [
      "g",
      "u"
    ],
    [
      "g",
      "h</w>"
    ],
    [
      "a",
      "u"
    ],
    [
      "s",
      "o</w>"
    ],
    [
      "v",
      "er"
    ],
    [
      "tion",
      "s</w>"
    ],
    [
      "l",
      "ea"
    ],
    [
      "f",
      "ir"
    ],
    [
      "f",
      "i"
    ],
    [
      "u",
      "m"
    ],
    [
      "gh",
      "t</w>"
    ],
    [
      "it",
      "s</w>"
    ],
    [
      "in",
      "c"
    ],
    [
      "ti",
      "m"
    ],
    [
      "on",
      "g</w>"
    ],
    [
      "ar",
      "y</w>"
    ],
    [
      "s",
      "on</w>"
    ],
    [
      "s",
      "c"
    ],
    [
      "m",
      "an"
    ],
    [
      "a",
      "r</w>"
    ],
    [
      "w",
      "or"
    ],
    [
      "at",
      "t"
    ],
    [
      "p",
      "or"
    ],
    [
      "k",
      "e</w>"
    ],
    [
      "in",
      "e</w>"
    ],
    [
      "e",
      "t</w>"
    ],
    [
      "si",
      "on</w>"
    ],
    [
      "r",
      "ou"
    ],
    [
      "bu",
      "t</w>"
    ],
    [
      "d",
      "er</w>"
    ],
    [
      "t",
      "ur"
    ],
    [
      "o",
      "c"
    ],
    [
      "b",
      "o"
    ],
    [
      "T",
      "h"
    ],
    [
      "i",
      "es</w>"
    ],
    [
      "l",
      "ed</w>"
    ],
    [
      "no",
      "t</w>"
    ],
    [
      "ou",
      "ld</w>"
    ],
    [
      "s",
      "er"
    ],
    [
      "20",
      "0"
    ],
    [
      "d",
      "er"
    ],
    [
      "f",
      "ter</w>"
    ],
    [
      "h",
      "er</w>"
    ],
    [
      "t",
      "w"
    ],
    [
      "C",
      "h"
    ],
    [
      "ar",
      "d</w>"
    ],
    [
      "t",
      "o"
    ],
    [
      "fir",
      "st</w>"
    ],
    [
      "ow",
      "n</w>"
    ],
    [
      "ti",
      "c"
    ],
    [
      "the",
      "ir</w>"
    ],
    [
      "or",
      "e</w>"
    ],
    [
      "e",
      "st"
    ],
    [
      "n",
      "i"
    ],
    [
      "p",
      "u"
    ],
    [
      "al",
      "so</w>"
    ],
    [
      "p",
      "la"
    ],
    [
      "con",
      "t"
    ],
    [
      "m",
      "ent</w>"
    ],
    [
      "ou",
      "r"
    ],
    [
      "0",
      "0</w>"
    ],
    [
      "al",
      "i"
    ],
    [
      "s",
      "a"
    ],
    [
      "oun",
      "d</w>"
    ],
    [
      "ag",
      "e</w>"
    ],
    [
      "s",
      "hi"
    ],
    [
      "e",
      "st</w>"
    ],
    [
      "g",
      "i"
    ],
    [
      "du",
      "c"
    ],
    [
      "f",
      "e"
    ],
    [
      "e",
      "l</w>"
    ],
    [
      "ac",
      "k</w>"
    ],
    [
      "k",
      "s</w>"
    ],
    [
      "t",
      "ing</w>"
    ],
    [
      "ha",
      "ve</w>"
    ],
    [
      "om",
      "e</w>"
    ],
    [
      "v",
      "ed</w>"
    ],
    [
      "@",
      "."
    ],
    [
      "@.",
      "@</w>"
    ],
    [
      "es",
      "s</w>"
    ],
    [
      "tw",
      "o</w>"
    ],
    [
      "i",
      "g"
    ],
    [
      "wh",
      "o</w>"
    ],
    [
      "lo",
      "w"
    ],
    [
      "t",
      "e</w>"
    ],
    [
      "b",
      "ec"
    ],
    [
      "en",
      "ce</w>"
    ],
    [
      "be",
      "en</w>"
    ],
    [
      "h",
      "as</w>"
    ],
    [
      "s",
      "ec"
    ],
    [
      "o",
      "ther</w>"
    ],
    [
      "r",
      "y</w>"
    ],
    [
      "ent",
      "s</w>"
    ],
    [
      "st",
      "or"
    ],
    [
      "ea",
      "r</w>"
    ],
    [
      "at",
      "er</w>"
    ],
    [
      "m",
      "u"
    ],
    [
      "@",
      ","
    ],
    [
      "@,",
      "@</w>"
    ],
    [
      "20",
      "1"
    ],
    [
      "c",
      "o"
    ],
    [
      "i",
      "d"
    ],
    [
      "ov",
      "er"
    ],
    [
      "A",
      "l"
    ],
    [
      "ti",
      "ve</w>"
    ],
    [
      "u",
      "s"
    ],
    [
      "th",
      "is</w>"
    ],
    [
      "ur",
      "ing</w>"
    ],
    [
      "ou",
      "r</w>"
    ],
    [
      "el",
      "y</w>"
    ],
    [
      "m",
      "il"
    ],
    [
      "on",
      "s</w>"
    ],
    [
      "k",
      "ing</w>"
    ],
    [
      "ou",
      "s</w>"
    ],
    [
      "s",
      "s</w>"
    ],
    [
      "re",
      "n"
    ],
    [
      "H",
      "e</w>"
    ],
    [
      "u",
      "s</w>"
    ],
    [
      "I",
      "n"
    ],
    [
      "em",
      "ber</w>"
    ],
    [
      "s",
      "h</w>"
    ],
    [
      "n",
      "ed</w>"
    ],
    [
      "i",
      "d</w>"
    ],
    [
      "p",
      "ri"
    ],
    [
      "tim",
      "e</w>"
    ],
    [
      "p",
      "e"
    ],
    [
      "inc",
      "lu"
    ],
    [
      "1",
      "8"
    ],
    [
      "tion",
      "al</w>"
    ],
    [
      "the",
      "y</w>"
    ],
    [
      "ab",
      "le</w>"
    ],
    [
      "w",
      "ould</w>"
    ],
    [
      "l",
      "and</w>"
    ],
    [
      "a",
      "fter</w>"
    ],
    [
      "for",
      "m"
    ],
    [
      "ov",
      "er</w>"
    ],
    [
      "in",
      "to</w>"
    ],
    [
      "pla",
      "y"
    ],
    [
      "ou",
      "gh</w>"
    ],
    [
      "el",
      "l</w>"
    ],
    [
      "shi",
      "p</w>"
    ],
    [
      "sp",
      "ec"
    ],
    [
      "pre",
      "s"
    ],
    [
      "mo",
      "st</w>"
    ],
    [
      "19",
      "9"
    ],
    [
      "ti",
      "c</w>"
    ],
    [
      "I",
      "t</w>"
    ],
    [
      "et",
      "we"
    ],
    [
      "r",
      "it"
    ],
    [
      "an",
      "ce</w>"
    ],
    [
      "wh",
      "en</w>"
    ],
    [
      "ff",
      "ic"
    ],
    [
      "M",
      "ar"
    ],
    [
      "si",
      "g"
    ],
    [
      "t",
      "ra"
    ],
    [
      "0",
      "00</w>"
    ],
    [
      "pro",
      "duc"
    ],
    [
      "d",
      "uring</w>"
    ],
    [
      "ne",
      "w</w>"
    ],
    [
      "ol",
      "low"
    ],
    [
      "f",
      "il"
    ],
    [
      "ing",
      "s</w>"
    ],
    [
      "N",
      "e"
    ],
    [
      "ri",
      "c"
    ],
    [
      "at",
      "es</w>"
    ],
    [
      "hi",
      "m</w>"
    ],
    [
      "ac",
      "e</w>"
    ],
    [
      "st",
      "ru"
    ],
    [
      "R",
      "o"
    ],
    [
      "th",
      "rou"
    ],
    [
      "ev",
      "er"
    ],
    [
      "A",
      "n"
    ],
    [
      "ea",
      "son</w>"
    ],
    [
      "on",
      "ly</w>"
    ],
    [
      "T",
      "his</w>"
    ],
    [
      "oo",
      "k</w>"
    ],
    [
      "re",
      "lea"
    ],
    [
      "ap",
      "p"
    ],
    [
      "k",
      "ed</w>"
    ],
    [
      "u",
      "sed</w>"
    ],
    [
      "um",
      "ber</w>"
    ],
    [
      "O",
      "n</w>"
    ],
    [
      "su",
      "ch</w>"
    ],
    [
      "em",
      "ent</w>"
    ],
    [
      "bec",
      "ame</w>"
    ],
    [
      "ser",
      "ies</w>"
    ],
    [
      "al",
      "bu"
    ],
    [
      "b",
      "li"
    ],
    [
      "rec",
      "or"
    ],
    [
      "C",
      "om"
    ],
    [
      "sa",
      "id</w>"
    ],
    [
      "v",
      "ing</w>"
    ],
    [
      "ep",
      "is"
    ],
    [
      "en",
      "d</w>"
    ],
    [
      "bo",
      "th</w>"
    ],
    [
      "au",
      "se</w>"
    ],
    [
      "la",
      "r</w>"
    ],
    [
      "W",
      "h"
    ],
    [
      "i",
      "ght</w>"
    ],
    [
      "un",
      "der</w>"
    ],
    [
      "pe",
      "op"
    ],
    [
      "2",
      "0</w>"
    ],
    [
      "ta",
      "in</w>"
    ],
    [
      "H",
      "ow"
    ],
    [
      "com",
      "pl"
    ],
    [
      "U",
      "ni"
    ],
    [
      "tur",
      "ned</w>"
    ],
    [
      "F",
      "ran"
    ],
    [
      "ent",
      "ur"
    ],
    [
      "S",
      "he</w>"
    ],
    [
      ".",
      "."
    ],
    [
      "ma",
      "j"
    ],
    [
      "po",
      "pu"
    ],
    [
      "fi",
      "ve</w>"
    ],
    [
      "di",
      "sc"
    ],
    [
      "se",
      "qu"
    ],
    [
      "cont",
      "ro"
    ],
    [
      "wor",
      "ld</w>"
    ],
    [
      "vi",
      "sion</w>"
    ],
    [
      "por",
      "ted</w>"
    ],
    [
      "ex",
      "per"
    ],
    [
      "Th",
      "ere</w>"
    ],
    [
      "200",
      "9</w>"
    ],
    [
      "gh",
      "ts</w>"
    ],
    [
      "201",
      "1</w>"
    ],
    [
      "In",
      "ter"
    ],
    [
      "com",
      "m"
    ],
    [
      "w",
      "ay</w>"
    ],
    [
      "ab",
      "out</w>"
    ],
    [
      "etwe",
      "en</w>"
    ],
    [
      "in",
      "ter"
    ],
    [
      "ev",
      "er</w>"
    ],
    [
      "whi",
      "le</w>"
    ],
    [
      "i",
      "c</w>"
    ],
    [
      "wh",
      "ere</w>"
    ],
    [
      "u",
      "p</w>"
    ],
    [
      "ch",
      "ar"
    ],
    [
      "ag",
      "a"
    ],
    [
      "s",
      "he</w>"
    ],
    [
      "pu",
      "bli"
    ],
    [
      "an",
      "t</w>"
    ],
    [
      "throu",
      "gh</w>"
    ],
    [
      "it",
      "e</w>"
    ],
    [
      "g",
      "ra"
    ],
    [
      "U",
      "n"
    ],
    [
      "l",
      "ater</w>"
    ],
    [
      "th",
      "ough</w>"
    ],
    [
      "r",
      "ac"
    ],
    [
      "on",
      "d</w>"
    ],
    [
      "Ne",
      "w</w>"
    ],
    [
      "fil",
      "m</w>"
    ],
    [
      "be",
      "for"
    ],
    [
      "h",
      "o"
    ],
    [
      "am",
      "p"
    ],
    [
      "ear",
      "s</w>"
    ],
    [
      "lo",
      "c"
    ],
    [
      "bu",
      "il"
    ],
    [
      "er",
      "n</w>"
    ],
    [
      "ou",
      "th</w>"
    ],
    [
      "t",
      "y</w>"
    ],
    [
      "inclu",
      "ding</w>"
    ],
    [
      "d",
      "ec"
    ],
    [
      "wor",
      "k</w>"
    ],
    [
      "y",
      "ear</w>"
    ],
    [
      "f",
      "f</w>"
    ],
    [
      "19",
      "8"
    ],
    [
      "at",
      "ur"
    ],
    [
      "ti",
      "es</w>"
    ],
    [
      "A",
      "fter</w>"
    ],
    [
      "mu",
      "si"
    ],
    [
      "su",
      "b"
    ],
    [
      "ser",
      "v"
    ],
    [
      "B",
      "ri"
    ],
    [
      "ever",
      "al</w>"
    ],
    [
      "vi",
      "e"
    ],
    [
      "de",
      "sig"
    ],
    [
      "relea",
      "sed</w>"
    ],
    [
      "di",
      "rec"
    ],
    [
      "1",
      "0</w>"
    ],
    [
      "N",
      "or"
    ],
    [
      "al",
      "led</w>"
    ],
    [
      "bec",
      "ause</w>"
    ],
    [
      "el",
      "op"
    ],
    [
      "ollow",
      "ing</w>"
    ],
    [
      "mil",
      "li"
    ],
    [
      "hi",
      "gh"
    ],
    [
      "to",
      "ber</w>"
    ],
    [
      "St",
      "ates</w>"
    ],
    [
      "re",
      "ma"
    ],
    [
      "en",
      "ded</w>"
    ],
    [
      "is",
      "h</w>"
    ],
    [
      "I",
      "I</w>"
    ],
    [
      "ic",
      "an</w>"
    ],
    [
      "ap",
      "pro"
    ],
    [
      "pl",
      "ace</w>"
    ],
    [
      "compl",
      "et"
    ],
    [
      "sh",
      "ed</w>"
    ],
    [
      "oo",
      "l</w>"
    ],
    [
      "ov",
      "ember</w>"
    ],
    [
      "C",
      "ol"
    ],
    [
      "J",
      "un"
    ],
    [
      "..",
      ".</w>"
    ],
    [
      "Mar",
      "ch</w>"
    ],
    [
      "S",
      "ep"
    ],
    [
      "D",
      "uring</w>"
    ],
    [
      "spec",
      "ies</w>"
    ],
    [
      "gu",
      "st</w>"
    ],
    [
      "W",
      "ar</w>"
    ],
    [
      "lu",
      "b</w>"
    ],
    [
      "la",
      "tion</w>"
    ],
    [
      "Uni",
      "ver"
    ],
    [
      "ro",
      "ss</w>"
    ],
    [
      "2",
      "5</w>"
    ],
    [
      "maj",
      "or</w>"
    ],
    [
      "em",
      "ents</w>"
    ],
    [
      "st",
      "ate</w>"
    ],
    [
      "con",
      "stru"
    ],
    [
      "ent",
      "ly</w>"
    ],
    [
      "per",
      "form"
    ],
    [
      "ru",
      "ary</w>"
    ],
    [
      "ta",
      "k"
    ],
    [
      "200",
      "8</w>"
    ],
    [
      "F",
      "ren"
    ],
    [
      "H",
      "is</w>"
    ],
    [
      "ha",
      "ving</w>"
    ],
    [
      "201",
      "2</w>"
    ],
    [
      "m",
      "ore</w>"
    ],
    [
      "a",
      "y"
    ],
    [
      "it",
      "ed</w>"
    ],
    [
      "b",
      "etween</w>"
    ],
    [
      "com",
      "p"
    ],
    [
      "ad",
      "e</w>"
    ],
    [
      "sec",
      "ond</w>"
    ],
    [
      "ac",
      "h</w>"
    ],
    [
      "f",
      "in"
    ],
    [
      "A",
      "r"
    ],
    [
      "w",
      "rit"
    ],
    [
      "s",
      "ur"
    ],
    [
      "g",
      "ame</w>"
    ],
    [
      "ol",
      "d</w>"
    ],
    [
      "th",
      "re"
    ],
    [
      "E",
      "n"
    ],
    [
      "J",
      "o"
    ],
    [
      "c",
      "ri"
    ],
    [
      "the",
      "m</w>"
    ],
    [
      "il",
      "l</w>"
    ],
    [
      "ev",
      "elop"
    ],
    [
      "l",
      "es</w>"
    ],
    [
      "al",
      "s</w>"
    ],
    [
      "h",
      "ea"
    ],
    [
      "d",
      "ay</w>"
    ],
    [
      "lo",
      "w</w>"
    ],
    [
      "19",
      "4"
    ],
    [
      "en",
      "ti"
    ],
    [
      "ear",
      "ly</w>"
    ],
    [
      "ic",
      "al</w>"
    ],
    [
      "at",
      "ing</w>"
    ],
    [
      "C",
      "on"
    ],
    [
      "si",
      "de</w>"
    ],
    [
      "ec",
      "ted</w>"
    ],
    [
      "t",
      "on</w>"
    ],
    [
      "e",
      "y</w>"
    ],
    [
      "i",
      "st"
    ],
    [
      "ff",
      "er"
    ],
    [
      "ar",
      "ds</w>"
    ],
    [
      "musi",
      "c</w>"
    ],
    [
      "How",
      "ever</w>"
    ],
    [
      "par",
      "t</w>"
    ],
    [
      "or",
      "ig"
    ],
    [
      "hi",
      "stor"
    ],
    [
      "peop",
      "le</w>"
    ],
    [
      "el",
      "f</w>"
    ],
    [
      "po",
      "li"
    ],
    [
      "v",
      "er</w>"
    ],
    [
      "ch",
      "an"
    ],
    [
      "rou",
      "p</w>"
    ],
    [
      "3",
      "0</w>"
    ],
    [
      "j",
      "u"
    ],
    [
      "N",
      "ovember</w>"
    ],
    [
      "ou",
      "se</w>"
    ],
    [
      "1",
      "7"
    ],
    [
      "U",
      "S</w>"
    ],
    [
      "wh",
      "at</w>"
    ],
    [
      "inclu",
      "ded</w>"
    ],
    [
      "mu",
      "ch</w>"
    ],
    [
      "per",
      "for"
    ],
    [
      "pro",
      "vi"
    ],
    [
      "In",
      "di"
    ],
    [
      "Nor",
      "th</w>"
    ],
    [
      "un",
      "der"
    ],
    [
      "we",
      "st</w>"
    ],
    [
      "ser",
      "ved</w>"
    ],
    [
      "Wh",
      "en</w>"
    ],
    [
      "P",
      "ro"
    ],
    [
      "ma",
      "ke</w>"
    ],
    [
      "sig",
      "ned</w>"
    ],
    [
      "est",
      "ab"
    ],
    [
      ".",
      "S"
    ],
    [
      "bec",
      "ome</w>"
    ],
    [
      "Al",
      "though</w>"
    ],
    [
      "is",
      "su"
    ],
    [
      "pres",
      "ent"
    ],
    [
      "publi",
      "shed</w>"
    ],
    [
      "aga",
      "in</w>"
    ],
    [
      "ver",
      "sion</w>"
    ],
    [
      "att",
      "em"
    ],
    [
      "tur",
      "n</w>"
    ],
    [
      "fe",
      "atur"
    ],
    [
      "la",
      "ss</w>"
    ],
    [
      "200",
      "7</w>"
    ],
    [
      "produc",
      "tion</w>"
    ],
    [
      "2",
      "1</w>"
    ],
    [
      "de",
      "o</w>"
    ],
    [
      "oun",
      "ty</w>"
    ],
    [
      "man",
      "ag"
    ],
    [
      "buil",
      "ding</w>"
    ],
    [
      "sh",
      "ow"
    ],
    [
      "gh",
      "out</w>"
    ],
    [
      "qu",
      "ir"
    ],
    [
      "mil",
      "ar</w>"
    ],
    [
      "18",
      "9"
    ],
    [
      "ni",
      "ght</w>"
    ],
    [
      "201",
      "3</w>"
    ],
    [
      "bo",
      "ard</w>"
    ],
    [
      "x",
      "im"
    ],
    [
      "ali",
      "an</w>"
    ],
    [
      "a",
      "v"
    ],
    [
      "thre",
      "e</w>"
    ],
    [
      "A",
      "m"
    ],
    [
      "Un",
      "ited</w>"
    ],
    [
      "ac",
      "h"
    ],
    [
      "es",
      "s"
    ],
    [
      "st",
      "r"
    ],
    [
      "y",
      "ears</w>"
    ],
    [
      "oo",
      "d</w>"
    ],
    [
      "th",
      "an</w>"
    ],
    [
      "f",
      "t</w>"
    ],
    [
      "l",
      "an"
    ],
    [
      "albu",
      "m</w>"
    ],
    [
      "w",
      "i"
    ],
    [
      "be",
      "g"
    ],
    [
      "epis",
      "o"
    ],
    [
      "ar",
      "ri"
    ],
    [
      "aga",
      "in"
    ],
    [
      "n",
      "umber</w>"
    ],
    [
      "e",
      "d"
    ],
    [
      "b",
      "er"
    ],
    [
      "en",
      "c"
    ],
    [
      "man",
      "y</w>"
    ],
    [
      "19",
      "7"
    ],
    [
      "re",
      "s</w>"
    ],
    [
      "po",
      "si"
    ],
    [
      "su",
      "p"
    ],
    [
      "ti",
      "sh</w>"
    ],
    [
      "milli",
      "on</w>"
    ],
    [
      "am",
      "es</w>"
    ],
    [
      "app",
      "ear"
    ],
    [
      "at",
      "h</w>"
    ],
    [
      "j",
      "ec"
    ],
    [
      "t",
      "u"
    ],
    [
      "ev",
      "en</w>"
    ],
    [
      "tic",
      "al</w>"
    ],
    [
      "li",
      "ke</w>"
    ],
    [
      "5",
      "0</w>"
    ],
    [
      "no",
      "w</w>"
    ],
    [
      "ch",
      "ool</w>"
    ],
    [
      "W",
      "il"
    ],
    [
      "Th",
      "ey</w>"
    ],
    [
      "or",
      "ld</w>"
    ],
    [
      "hi",
      "gh</w>"
    ],
    [
      "1",
      "2</w>"
    ],
    [
      "der",
      "ed</w>"
    ],
    [
      "ing",
      "le</w>"
    ],
    [
      "di",
      "ffer"
    ],
    [
      "ou",
      "ght</w>"
    ],
    [
      "fi",
      "el"
    ],
    [
      "pri",
      "l</w>"
    ],
    [
      "M",
      "ay</w>"
    ],
    [
      "Fren",
      "ch</w>"
    ],
    [
      "ig",
      "n</w>"
    ],
    [
      "al",
      "ong</w>"
    ],
    [
      "vi",
      "deo</w>"
    ],
    [
      "relea",
      "se</w>"
    ],
    [
      "ju",
      "st</w>"
    ],
    [
      "sp",
      "on"
    ],
    [
      "serv",
      "ic"
    ],
    [
      "ow",
      "ever</w>"
    ],
    [
      "J",
      "ap"
    ],
    [
      "publi",
      "c</w>"
    ],
    [
      "ro",
      "te</w>"
    ],
    [
      "evelop",
      "ment</w>"
    ],
    [
      "U",
      ".S"
    ],
    [
      "ma",
      "in</w>"
    ],
    [
      "S",
      "outh</w>"
    ],
    [
      "ra",
      "is"
    ],
    [
      "to",
      "p</w>"
    ],
    [
      "2",
      "4</w>"
    ],
    [
      "de",
      "fe"
    ],
    [
      "ur",
      "ther</w>"
    ],
    [
      "k",
      "er</w>"
    ],
    [
      "inclu",
      "de</w>"
    ],
    [
      "throu",
      "ghout</w>"
    ],
    [
      "sig",
      "ni"
    ],
    [
      "chan",
      "ge</w>"
    ],
    [
      "it",
      "ary</w>"
    ],
    [
      "comm",
      "un"
    ],
    [
      "E",
      "x"
    ],
    [
      "recor",
      "ded</w>"
    ],
    [
      "ul",
      "tur"
    ],
    [
      "200",
      "6</w>"
    ],
    [
      "att",
      "ack</w>"
    ],
    [
      "la",
      "im"
    ],
    [
      "L",
      "ea"
    ],
    [
      "popu",
      "lation</w>"
    ],
    [
      "gh",
      "ter</w>"
    ],
    [
      "pro",
      "mo"
    ],
    [
      "pres",
      "ent</w>"
    ],
    [
      "for",
      "ce</w>"
    ],
    [
      "oc",
      "k</w>"
    ],
    [
      "us",
      "ing</w>"
    ],
    [
      "bec",
      "om"
    ],
    [
      "loc",
      "ated</w>"
    ],
    [
      "sub",
      "sequ"
    ],
    [
      "wor",
      "ks</w>"
    ],
    [
      "com",
      "par"
    ],
    [
      "Ch",
      "amp"
    ],
    [
      "es",
      "e</w>"
    ],
    [
      "Am",
      "er"
    ],
    [
      "a",
      "tions</w>"
    ],
    [
      "A",
      "u"
    ],
    [
      "m",
      "an</w>"
    ],
    [
      "again",
      "st</w>"
    ],
    [
      "wi",
      "th"
    ],
    [
      "char",
      "ac"
    ],
    [
      "s",
      "eason</w>"
    ],
    [
      "episo",
      "de</w>"
    ],
    [
      "w",
      "ell</w>"
    ],
    [
      "ti",
      "v"
    ],
    [
      "l",
      "ar"
    ],
    [
      "an",
      "s</w>"
    ],
    [
      "ea",
      "m</w>"
    ],
    [
      "Jo",
      "h"
    ],
    [
      "Bri",
      "tish</w>"
    ],
    [
      "in",
      "ed</w>"
    ],
    [
      "n",
      "ing</w>"
    ],
    [
      "g",
      "re"
    ],
    [
      "c",
      "ol"
    ],
    [
      "19",
      "6"
    ],
    [
      "o",
      "ffic"
    ],
    [
      "b",
      "le</w>"
    ],
    [
      "con",
      "si"
    ],
    [
      "ro",
      "p"
    ],
    [
      "e",
      "di"
    ],
    [
      "il",
      "y</w>"
    ],
    [
      "i",
      "al</w>"
    ],
    [
      "en",
      "d"
    ],
    [
      "t",
      "or"
    ],
    [
      "f",
      "our</w>"
    ],
    [
      "W",
      "orld</w>"
    ],
    [
      "por",
      "t</w>"
    ],
    [
      "y",
      "st"
    ],
    [
      "r",
      "on"
    ],
    [
      "1",
      "5</w>"
    ],
    [
      "posi",
      "tion</w>"
    ],
    [
      "at",
      "ch</w>"
    ],
    [
      "perfor",
      "man"
    ],
    [
      "le",
      "ft</w>"
    ],
    [
      "el",
      "ec"
    ],
    [
      "li",
      "sh</w>"
    ],
    [
      "ri",
      "bu"
    ],
    [
      "po",
      "sed</w>"
    ],
    [
      "vie",
      "w</w>"
    ],
    [
      "ir",
      "d</w>"
    ],
    [
      "pre",
      "vi"
    ],
    [
      "201",
      "0</w>"
    ],
    [
      "de",
      "ath</w>"
    ],
    [
      "al",
      "though</w>"
    ],
    [
      "tim",
      "es</w>"
    ],
    [
      "ing",
      "ton</w>"
    ],
    [
      "ic",
      "k"
    ],
    [
      "ta",
      "ke</w>"
    ],
    [
      "U.S",
      ".</w>"
    ],
    [
      "mil",
      "itary</w>"
    ],
    [
      "differ",
      "ent</w>"
    ],
    [
      "cri",
      "tic"
    ],
    [
      "ev",
      "ent"
    ],
    [
      "str",
      "ali"
    ],
    [
      "2",
      "2</w>"
    ],
    [
      "C",
      "hi"
    ],
    [
      "ul",
      "l</w>"
    ],
    [
      "Lea",
      "gu"
    ],
    [
      "fi",
      "c</w>"
    ],
    [
      "lan",
      "ds</w>"
    ],
    [
      "form",
      "er</w>"
    ],
    [
      "S",
      "co"
    ],
    [
      "ma",
      "king</w>"
    ],
    [
      "poli",
      "tical</w>"
    ],
    [
      "is",
      "sion</w>"
    ],
    [
      "mo",
      "der"
    ],
    [
      "ur",
      "ren"
    ],
    [
      "pro",
      "jec"
    ],
    [
      "popu",
      "lar</w>"
    ],
    [
      "T",
      "im"
    ],
    [
      "B",
      "att"
    ],
    [
      "J",
      "ames</w>"
    ],
    [
      "tak",
      "en</w>"
    ],
    [
      "am",
      "ong</w>"
    ],
    [
      "ran",
      "ge</w>"
    ],
    [
      "Ro",
      "ber"
    ],
    [
      "oun",
      "ded</w>"
    ],
    [
      "et",
      "ter</w>"
    ],
    [
      "R",
      "us"
    ],
    [
      "aga",
      "z"
    ],
    [
      "gi",
      "on</w>"
    ],
    [
      "ap",
      "tur"
    ],
    [
      "rou",
      "te</w>"
    ],
    [
      "3",
      "1</w>"
    ],
    [
      "desig",
      "n</w>"
    ],
    [
      "sh",
      "ould</w>"
    ],
    [
      "18",
      "8"
    ],
    [
      "St",
      "ate</w>"
    ],
    [
      "ab",
      "ly</w>"
    ],
    [
      "F",
      "or</w>"
    ],
    [
      "wh",
      "ite</w>"
    ],
    [
      "no",
      "ted</w>"
    ],
    [
      "N",
      "av"
    ],
    [
      "r",
      "e</w>"
    ],
    [
      "m",
      "in"
    ],
    [
      "a",
      "re"
    ],
    [
      "Amer",
      "ican</w>"
    ],
    [
      "as",
      "s"
    ],
    [
      "d",
      "es"
    ],
    [
      "th",
      "ere</w>"
    ],
    [
      "al",
      "l"
    ],
    [
      "u",
      "m</w>"
    ],
    [
      "be",
      "ing</w>"
    ],
    [
      "en",
      "er"
    ],
    [
      "ro",
      "w"
    ],
    [
      "on",
      "g"
    ],
    [
      "an",
      "y</w>"
    ],
    [
      "h",
      "el"
    ],
    [
      "k",
      "n"
    ],
    [
      "con",
      "c"
    ],
    [
      "P",
      "ar"
    ],
    [
      "beg",
      "an</w>"
    ],
    [
      "Au",
      "gust</w>"
    ],
    [
      "o",
      "w</w>"
    ],
    [
      "ay",
      "s</w>"
    ],
    [
      "e",
      "i"
    ],
    [
      "t",
      "eam</w>"
    ],
    [
      "f",
      "ic"
    ],
    [
      "pl",
      "ac"
    ],
    [
      "Joh",
      "n</w>"
    ],
    [
      "em",
      "b"
    ],
    [
      "ti",
      "l</w>"
    ],
    [
      "19",
      "5"
    ],
    [
      "si",
      "ons</w>"
    ],
    [
      "shi",
      "p"
    ],
    [
      "v",
      "ol"
    ],
    [
      "A",
      "pril</w>"
    ],
    [
      "charac",
      "ter</w>"
    ],
    [
      "di",
      "d</w>"
    ],
    [
      "lar",
      "ge</w>"
    ],
    [
      "ra",
      "ft</w>"
    ],
    [
      "am",
      "ily</w>"
    ],
    [
      "at",
      "ely</w>"
    ],
    [
      "ff",
      "ec"
    ],
    [
      "se",
      "t</w>"
    ],
    [
      "z",
      "ed</w>"
    ],
    [
      "1",
      "1</w>"
    ],
    [
      "Y",
      "or"
    ],
    [
      "Ch",
      "ri"
    ],
    [
      "rop",
      "ical</w>"
    ],
    [
      "consi",
      "dered</w>"
    ],
    [
      "il",
      "ity</w>"
    ],
    [
      "st",
      "ern</w>"
    ],
    [
      "Wil",
      "li"
    ],
    [
      "with",
      "in</w>"
    ],
    [
      "ea",
      "st</w>"
    ],
    [
      "sup",
      "port</w>"
    ],
    [
      "ci",
      "al</w>"
    ],
    [
      "4",
      "0</w>"
    ],
    [
      "par",
      "tic"
    ],
    [
      "enc",
      "es</w>"
    ],
    [
      "performan",
      "ce</w>"
    ],
    [
      "ta",
      "ined</w>"
    ],
    [
      "2",
      "7</w>"
    ],
    [
      "previ",
      "ous</w>"
    ],
    [
      "play",
      "er</w>"
    ],
    [
      "Th",
      "ese</w>"
    ],
    [
      "ur",
      "ch</w>"
    ],
    [
      "W",
      "hi"
    ],
    [
      "str",
      "alian</w>"
    ],
    [
      "im",
      "por"
    ],
    [
      "strali",
      "a</w>"
    ],
    [
      "201",
      "4</w>"
    ],
    [
      "wi",
      "de</w>"
    ],
    [
      "att",
      "le</w>"
    ],
    [
      "la",
      "y"
    ],
    [
      "200",
      "5</w>"
    ],
    [
      "gre",
      "at</w>"
    ],
    [
      "C",
      "ounty</w>"
    ],
    [
      "oun",
      "g</w>"
    ],
    [
      "ap",
      "po"
    ],
    [
      "com",
      "man"
    ],
    [
      "rou",
      "ght</w>"
    ],
    [
      "ul",
      "ly</w>"
    ],
    [
      "R",
      "ep"
    ],
    [
      "desig",
      "ned</w>"
    ],
    [
      "id",
      "enti"
    ],
    [
      "su",
      "per"
    ],
    [
      "wor",
      "ked</w>"
    ],
    [
      "agaz",
      "ine</w>"
    ],
    [
      "au",
      "sed</w>"
    ],
    [
      "18",
      "6"
    ],
    [
      "fin",
      "is"
    ],
    [
      "om",
      "en</w>"
    ],
    [
      "form",
      "ation</w>"
    ],
    [
      "ev",
      "el</w>"
    ],
    [
      "provi",
      "ded</w>"
    ],
    [
      "disc",
      "over"
    ],
    [
      "qu",
      "ad"
    ],
    [
      "fe",
      "et</w>"
    ],
    [
      "ow",
      "ards</w>"
    ],
    [
      "sp",
      "ir"
    ],
    [
      "sur",
      "vi"
    ],
    [
      "a",
      "tional</w>"
    ],
    [
      "kn",
      "own</w>"
    ],
    [
      "befor",
      "e</w>"
    ],
    [
      "m",
      "ade</w>"
    ],
    [
      "rec",
      "ei"
    ],
    [
      "des",
      "cri"
    ],
    [
      "el",
      "l"
    ],
    [
      "s",
      "ti"
    ],
    [
      "ac",
      "c"
    ],
    [
      "th",
      "en</w>"
    ],
    [
      "un",
      "til</w>"
    ],
    [
      "in",
      "t"
    ],
    [
      "En",
      "g"
    ],
    [
      "over",
      "n"
    ],
    [
      "b",
      "as"
    ],
    [
      "p",
      "h"
    ],
    [
      "w",
      "ard</w>"
    ],
    [
      "an",
      "d"
    ],
    [
      "J",
      "u"
    ],
    [
      "ar",
      "i"
    ],
    [
      "j",
      "o"
    ],
    [
      "r",
      "ed</w>"
    ],
    [
      "y",
      "ing</w>"
    ],
    [
      "sh",
      "ow</w>"
    ],
    [
      "le",
      "y</w>"
    ],
    [
      "si",
      "ve</w>"
    ],
    [
      "e",
      "ach</w>"
    ],
    [
      "Yor",
      "k</w>"
    ],
    [
      "19",
      "3"
    ],
    [
      "f",
      "ollowing</w>"
    ],
    [
      "0",
      "s</w>"
    ],
    [
      "op",
      "er"
    ],
    [
      "re",
      "su"
    ],
    [
      "v",
      "es</w>"
    ],
    [
      "di",
      "st"
    ],
    [
      "are",
      "a</w>"
    ],
    [
      "ener",
      "al</w>"
    ],
    [
      "ec",
      "ember</w>"
    ],
    [
      "fiel",
      "d</w>"
    ],
    [
      "tiv",
      "ely</w>"
    ],
    [
      "1",
      "4</w>"
    ],
    [
      "with",
      "out</w>"
    ],
    [
      "for",
      "m</w>"
    ],
    [
      "k",
      "il"
    ],
    [
      "li",
      "ght</w>"
    ],
    [
      "or",
      "t</w>"
    ],
    [
      "Amer",
      "ic"
    ],
    [
      "emb",
      "ers</w>"
    ],
    [
      "al",
      "low"
    ],
    [
      "comp",
      "any</w>"
    ],
    [
      "at",
      "ch"
    ],
    [
      "Au",
      "stralia</w>"
    ],
    [
      "ho",
      "w</w>"
    ],
    [
      "be",
      "st</w>"
    ],
    [
      "signi",
      "fic"
    ],
    [
      "Whi",
      "le</w>"
    ],
    [
      "row",
      "n</w>"
    ],
    [
      "ro",
      "ad"
    ],
    [
      "sc",
      "en"
    ],
    [
      "rema",
      "ined</w>"
    ],
    [
      "2",
      "3</w>"
    ],
    [
      "ab",
      "ility</w>"
    ],
    [
      "6",
      "0</w>"
    ],
    [
      "ur",
      "ric"
    ],
    [
      "contro",
      "l</w>"
    ],
    [
      "min",
      "ist"
    ],
    [
      "ra",
      "tion</w>"
    ],
    [
      "W",
      "est</w>"
    ],
    [
      "M",
      "on"
    ],
    [
      "im",
      "pro"
    ],
    [
      "ear",
      "ch</w>"
    ],
    [
      "om",
      "an</w>"
    ],
    [
      "S",
      "ta"
    ],
    [
      "oun",
      "ds</w>"
    ],
    [
      "str",
      "ong</w>"
    ],
    [
      "C",
      "ity</w>"
    ],
    [
      "ent",
      "er</w>"
    ],
    [
      "201",
      "5</w>"
    ],
    [
      "ffic",
      "ul"
    ],
    [
      "P",
      "hi"
    ],
    [
      "D",
      "es"
    ],
    [
      "ri",
      "c</w>"
    ],
    [
      "Fran",
      "ce</w>"
    ],
    [
      "18",
      "7"
    ],
    [
      "wor",
      "king</w>"
    ],
    [
      "we",
      "stern</w>"
    ],
    [
      "5",
      "00</w>"
    ],
    [
      "lea",
      "r</w>"
    ],
    [
      "vi",
      "du"
    ],
    [
      "tu",
      "res</w>"
    ],
    [
      "par",
      "ty</w>"
    ],
    [
      "B",
      "C</w>"
    ],
    [
      "to",
      "o</w>"
    ],
    [
      "vol",
      "ved</w>"
    ],
    [
      "am",
      "ent</w>"
    ],
    [
      "lo",
      "se</w>"
    ],
    [
      "cont",
      "rac"
    ],
    [
      "ran",
      "sp"
    ],
    [
      "H",
      "ouse</w>"
    ],
    [
      "appear",
      "ance</w>"
    ],
    [
      "a",
      "d</w>"
    ],
    [
      "m",
      "ov"
    ],
    [
      "s",
      "ome</w>"
    ],
    [
      "c",
      "hi"
    ],
    [
      "cont",
      "in"
    ],
    [
      "o",
      "g"
    ],
    [
      "t",
      "en</w>"
    ],
    [
      "recei",
      "ved</w>"
    ],
    [
      "vie",
      "w"
    ],
    [
      "l",
      "ine</w>"
    ],
    [
      "n",
      "or"
    ],
    [
      "f",
      "u"
    ],
    [
      "overn",
      "ment</w>"
    ]
  ],
  "config": {
    "train_text": "data/train.txt",
    "eval_text": "data/eval.txt",
    "vocab_size": 8000,
    "pretokenize": "whitespace",
    "lowercase": false,
    "max_train_lines": null,
    "max_eval_lines": null,
    "max_merges": null,
    "tau": 10,
    "alpha": 0.8,
    "sigma": 1.0,
    "batch_size": 100,
    "eig_k": 8,
    "eig_eps": 1e-08,
    "seed": 0,
    "beta": 0.2,
    "sigma_auto": false,
    "deterministic_ties": false,
    "bpe_warmstart": 300,
    "num_seeds": 1,
    "checkpoint_dir": "outputs_4be87_2",
    "checkpoint_every": 500,
    "train_lm": true,
    "lm_epochs": 2,
    "lm_batch_size": 16,
    "lm_block_size": 128,
    "lm_dim": 128,
    "lm_heads": 4,
    "lm_layers": 2,
    "lm_lr": 0.0003,
    "out_json": null
  }
}