{
  "algo": "bpe",
  "seed": null,
  "num_merges": 500,
  "merges": [
    [
      "t",
      "h"
    ],
    [
      "th",
      "e</w>"
    ],
    [
      "i",
      "n"
    ],
    [
      "a",
      "n"
    ],
    [
      "e",
      "d</w>"
    ],
    [
      "e",
      "r"
    ],
    [
      "r",
      "e"
    ],
    [
      "a",
      "r"
    ],
    [
      "t",
      "i"
    ],
    [
      "o",
      "n"
    ],
    [
      "e",
      "n"
    ],
    [
      "e",
      "r</w>"
    ],
    [
      "an",
      "d</w>"
    ],
    [
      "o",
      "r"
    ],
    [
      "o",
      "f</w>"
    ],
    [
      "o",
      "n</w>"
    ],
    [
      "in",
      "g</w>"
    ],
    [
      "i",
      "n</w>"
    ],
    [
      "o",
      "u"
    ],
    [
      "t",
      "o</w>"
    ],
    [
      "a",
      "l"
    ],
    [
      "a",
      "s</w>"
    ],
    [
      "i",
      "t"
    ],
    [
      "s",
      "t"
    ],
    [
      "a",
      "t"
    ],
    [
      "e",
      "s</w>"
    ],
    [
      "r",
      "o"
    ],
    [
      "h",
      "i"
    ],
    [
      "a",
      "c"
    ],
    [
      "h",
      "e</w>"
    ],
    [
      "a",
      "l</w>"
    ],
    [
      "s",
      "i"
    ],
    [
      "a",
      "t</w>"
    ],
    [
      "a",
      "n</w>"
    ],
    [
      "e",
      "l"
    ],
    [
      "r",
      "i"
    ],
    [
      "o",
      "r</w>"
    ],
    [
      "s",
      "t</w>"
    ],
    [
      "e",
      "c"
    ],
    [
      "o",
      "m"
    ],
    [
      "w",
      "as</w>"
    ],
    [
      "i",
      "l"
    ],
    [
      "u",
      "r"
    ],
    [
      "a",
      "m"
    ],
    [
      "e",
      "n</w>"
    ],
    [
      "l",
      "i"
    ],
    [
      "d",
      "i"
    ],
    [
      "e",
      "a"
    ],
    [
      "ti",
      "on</w>"
    ],
    [
      "l",
      "y</w>"
    ],
    [
      "@",
      "-"
    ],
    [
      "@-",
      "@</w>"
    ],
    [
      "T",
      "he</w>"
    ],
    [
      "o",
      "l"
    ],
    [
      "i",
      "c"
    ],
    [
      "l",
      "a"
    ],
    [
      "l",
      "e</w>"
    ],
    [
      "e",
      "m"
    ],
    [
      "i",
      "s</w>"
    ],
    [
      "e",
      "s"
    ],
    [
      "r",
      "a"
    ],
    [
      "h",
      "a"
    ],
    [
      "'",
      "s</w>"
    ],
    [
      "u",
      "n"
    ],
    [
      "th",
      "at</w>"
    ],
    [
      "l",
      "o"
    ],
    [
      "it",
      "h</w>"
    ],
    [
      "f",
      "or</w>"
    ],
    [
      "i",
      "s"
    ],
    [
      "v",
      "e</w>"
    ],
    [
      "en",
      "t</w>"
    ],
    [
      "i",
      "r"
    ],
    [
      "e",
      "t"
    ],
    [
      "b",
      "y</w>"
    ],
    [
      "w",
      "ith</w>"
    ],
    [
      "e",
      "v"
    ],
    [
      "c",
      "h</w>"
    ],
    [
      "c",
      "h"
    ],
    [
      "s",
      "u"
    ],
    [
      "c",
      "on"
    ],
    [
      "en",
      "t"
    ],
    [
      "er",
      "e</w>"
    ],
    [
      "a",
      "g"
    ],
    [
      "p",
      "o"
    ],
    [
      "a",
      "s"
    ],
    [
      "c",
      "e</w>"
    ],
    [
      "er",
      "s</w>"
    ],
    [
      "a",
      "d"
    ],
    [
      "1",
      "9"
    ],
    [
      "b",
      "e"
    ],
    [
      "p",
      "ro"
    ],
    [
      "hi",
      "s</w>"
    ],
    [
      "b",
      "u"
    ],
    [
      "f",
      "or"
    ],
    [
      "ou",
      "n"
    ],
    [
      "g",
      "h"
    ],
    [
      "d",
      "e"
    ],
    [
      "o",
      "v"
    ],
    [
      "c",
      "om"
    ],
    [
      "o",
      "w"
    ],
    [
      "w",
      "h"
    ],
    [
      "t",
      "h</w>"
    ],
    [
      "s",
      "e</w>"
    ],
    [
      "ro",
      "m</w>"
    ],
    [
      "th",
      "e"
    ],
    [
      "ti",
      "on"
    ],
    [
      "e",
      "x"
    ],
    [
      "a",
      "b"
    ],
    [
      "f",
      "rom</w>"
    ],
    [
      "t",
      "ed</w>"
    ],
    [
      "o",
      "p"
    ],
    [
      "s",
      "p"
    ],
    [
      "i",
      "t</w>"
    ],
    [
      "v",
      "i"
    ],
    [
      "a",
      "p"
    ],
    [
      "a",
      "tion</w>"
    ],
    [
      "s",
      "h"
    ],
    [
      "2",
      "0"
    ],
    [
      "t",
      "er</w>"
    ],
    [
      "t",
      "s</w>"
    ],
    [
      "w",
      "hi"
    ],
    [
      "n",
      "o"
    ],
    [
      "a",
      "y</w>"
    ],
    [
      "w",
      "ere</w>"
    ],
    [
      "e",
      "ar"
    ],
    [
      "d",
      "s</w>"
    ],
    [
      "i",
      "m"
    ],
    [
      "o",
      "o"
    ],
    [
      "th",
      "er</w>"
    ],
    [
      "r",
      "u"
    ],
    [
      "q",
      "u"
    ],
    [
      "d",
      "u"
    ],
    [
      "e",
      "p"
    ],
    [
      "at",
      "e</w>"
    ],
    [
      "l",
      "e"
    ],
    [
      "d",
      "ed</w>"
    ],
    [
      "p",
      "re"
    ],
    [
      "t",
      "er"
    ],
    [
      "p",
      "er"
    ],
    [
      "f",
      "f"
    ],
    [
      "l",
      "u"
    ],
    [
      "d",
      "ing</w>"
    ],
    [
      "at",
      "ed</w>"
    ],
    [
      "d",
      "e</w>"
    ],
    [
      "s",
      "ed</w>"
    ],
    [
      "it",
      "y</w>"
    ],
    [
      "in",
      "g"
    ],
    [
      "u",
      "l"
    ],
    [
      "l",
      "d</w>"
    ],
    [
      "ha",
      "d</w>"
    ],
    [
      "re",
      "c"
    ],
    [
      "am",
      "e</w>"
    ],
    [
      "c",
      "i"
    ],
    [
      "m",
      "a"
    ],
    [
      "m",
      "o"
    ],
    [
      "I",
      "n</w>"
    ],
    [
      "i",
      "r</w>"
    ],
    [
      "t",
      "a"
    ],
    [
      "whi",
      "ch</w>"
    ],
    [
      "s",
      "e"
    ],
    [
      "p",
      "l"
    ],
    [
      "on",
      "e</w>"
    ],
    [
      "n",
      "e"
    ],
    [
      "b",
      "er</w>"
    ],
    [
      "al",
      "l</w>"
    ],
    [
      "ar",
      "e</w>"
    ],
    [
      "b",
      "e</w>"
    ],
    [
      "r",
      "an"
    ],
    [
      "w",
      "e"
    ],
    [
      "p",
      "ar"
    ],
    [
      "g",
      "e</w>"
    ],
    [
      "al",
      "ly</w>"
    ],
    [
      "S",
      "t"
    ],
    [
      "ou",
      "t</w>"
    ],
    [
      "g",
      "u"
    ],
    [
      "g",
      "h</w>"
    ],
    [
      "a",
      "u"
    ],
    [
      "s",
      "o</w>"
    ],
    [
      "v",
      "er"
    ],
    [
      "tion",
      "s</w>"
    ],
    [
      "l",
      "ea"
    ],
    [
      "f",
      "ir"
    ],
    [
      "f",
      "i"
    ],
    [
      "u",
      "m"
    ],
    [
      "gh",
      "t</w>"
    ],
    [
      "it",
      "s</w>"
    ],
    [
      "in",
      "c"
    ],
    [
      "ti",
      "m"
    ],
    [
      "on",
      "g</w>"
    ],
    [
      "ar",
      "y</w>"
    ],
    [
      "s",
      "on</w>"
    ],
    [
      "s",
      "c"
    ],
    [
      "m",
      "an"
    ],
    [
      "a",
      "r</w>"
    ],
    [
      "w",
      "or"
    ],
    [
      "at",
      "t"
    ],
    [
      "p",
      "or"
    ],
    [
      "k",
      "e</w>"
    ],
    [
      "in",
      "e</w>"
    ],
    [
      "e",
      "t</w>"
    ],
    [
      "si",
      "on</w>"
    ],
    [
      "r",
      "ou"
    ],
    [
      "bu",
      "t</w>"
    ],
    [
      "d",
      "er</w>"
    ],
    [
      "t",
      "ur"
    ],
    [
      "o",
      "c"
    ],
    [
      "b",
      "o"
    ],
    [
      "T",
      "h"
    ],
    [
      "i",
      "es</w>"
    ],
    [
      "l",
      "ed</w>"
    ],
    [
      "no",
      "t</w>"
    ],
    [
      "ou",
      "ld</w>"
    ],
    [
      "s",
      "er"
    ],
    [
      "20",
      "0"
    ],
    [
      "d",
      "er"
    ],
    [
      "f",
      "ter</w>"
    ],
    [
      "h",
      "er</w>"
    ],
    [
      "t",
      "w"
    ],
    [
      "C",
      "h"
    ],
    [
      "ar",
      "d</w>"
    ],
    [
      "t",
      "o"
    ],
    [
      "fir",
      "st</w>"
    ],
    [
      "ow",
      "n</w>"
    ],
    [
      "ti",
      "c"
    ],
    [
      "the",
      "ir</w>"
    ],
    [
      "or",
      "e</w>"
    ],
    [
      "e",
      "st"
    ],
    [
      "n",
      "i"
    ],
    [
      "p",
      "u"
    ],
    [
      "al",
      "so</w>"
    ],
    [
      "p",
      "la"
    ],
    [
      "con",
      "t"
    ],
    [
      "m",
      "ent</w>"
    ],
    [
      "ou",
      "r"
    ],
    [
      "0",
      "0</w>"
    ],
    [
      "al",
      "i"
    ],
    [
      "s",
      "a"
    ],
    [
      "oun",
      "d</w>"
    ],
    [
      "ag",
      "e</w>"
    ],
    [
      "s",
      "hi"
    ],
    [
      "e",
      "st</w>"
    ],
    [
      "g",
      "i"
    ],
    [
      "du",
      "c"
    ],
    [
      "f",
      "e"
    ],
    [
      "e",
      "l</w>"
    ],
    [
      "ac",
      "k</w>"
    ],
    [
      "k",
      "s</w>"
    ],
    [
      "t",
      "ing</w>"
    ],
    [
      "ha",
      "ve</w>"
    ],
    [
      "om",
      "e</w>"
    ],
    [
      "v",
      "ed</w>"
    ],
    [
      "@",
      "."
    ],
    [
      "@.",
      "@</w>"
    ],
    [
      "es",
      "s</w>"
    ],
    [
      "tw",
      "o</w>"
    ],
    [
      "i",
      "g"
    ],
    [
      "wh",
      "o</w>"
    ],
    [
      "lo",
      "w"
    ],
    [
      "t",
      "e</w>"
    ],
    [
      "b",
      "ec"
    ],
    [
      "en",
      "ce</w>"
    ],
    [
      "be",
      "en</w>"
    ],
    [
      "h",
      "as</w>"
    ],
    [
      "s",
      "ec"
    ],
    [
      "o",
      "ther</w>"
    ],
    [
      "r",
      "y</w>"
    ],
    [
      "ent",
      "s</w>"
    ],
    [
      "st",
      "or"
    ],
    [
      "ea",
      "r</w>"
    ],
    [
      "at",
      "er</w>"
    ],
    [
      "m",
      "u"
    ],
    [
      "@",
      ","
    ],
    [
      "@,",
      "@</w>"
    ],
    [
      "20",
      "1"
    ],
    [
      "c",
      "o"
    ],
    [
      "i",
      "d"
    ],
    [
      "ov",
      "er"
    ],
    [
      "A",
      "l"
    ],
    [
      "ti",
      "ve</w>"
    ],
    [
      "u",
      "s"
    ],
    [
      "th",
      "is</w>"
    ],
    [
      "ur",
      "ing</w>"
    ],
    [
      "ou",
      "r</w>"
    ],
    [
      "el",
      "y</w>"
    ],
    [
      "m",
      "il"
    ],
    [
      "on",
      "s</w>"
    ],
    [
      "k",
      "ing</w>"
    ],
    [
      "ou",
      "s</w>"
    ],
    [
      "s",
      "s</w>"
    ],
    [
      "re",
      "n"
    ],
    [
      "H",
      "e</w>"
    ],
    [
      "u",
      "s</w>"
    ],
    [
      "I",
      "n"
    ],
    [
      "em",
      "ber</w>"
    ],
    [
      "s",
      "h</w>"
    ],
    [
      "n",
      "ed</w>"
    ],
    [
      "i",
      "d</w>"
    ],
    [
      "p",
      "ri"
    ],
    [
      "tim",
      "e</w>"
    ],
    [
      "p",
      "e"
    ],
    [
      "for",
      "m"
    ],
    [
      "an",
      "t</w>"
    ],
    [
      "f",
      "in"
    ],
    [
      "m",
      "in"
    ],
    [
      "the",
      "y</w>"
    ],
    [
      "com",
      "m"
    ],
    [
      "a",
      "y"
    ],
    [
      "1",
      "8"
    ],
    [
      "l",
      "and</w>"
    ],
    [
      "a",
      "v"
    ],
    [
      "el",
      "l</w>"
    ],
    [
      "e",
      "i"
    ],
    [
      "inc",
      "lu"
    ],
    [
      "M",
      "ar"
    ],
    [
      "t",
      "y</w>"
    ],
    [
      "si",
      "g"
    ],
    [
      "a",
      "fter</w>"
    ],
    [
      "m",
      "e"
    ],
    [
      "ac",
      "e</w>"
    ],
    [
      "re",
      "e</w>"
    ],
    [
      "t",
      "ra"
    ],
    [
      "tion",
      "al</w>"
    ],
    [
      "h",
      "o"
    ],
    [
      "ab",
      "le</w>"
    ],
    [
      "r",
      "it"
    ],
    [
      "w",
      "ould</w>"
    ],
    [
      "a",
      "in"
    ],
    [
      "f",
      "il"
    ],
    [
      "ri",
      "c"
    ],
    [
      "o",
      "g"
    ],
    [
      "in",
      "to</w>"
    ],
    [
      "ov",
      "er</w>"
    ],
    [
      "t",
      "en"
    ],
    [
      "w",
      "ay</w>"
    ],
    [
      "c",
      "a"
    ],
    [
      "f",
      "t</w>"
    ],
    [
      "k",
      "ed</w>"
    ],
    [
      "re",
      "s</w>"
    ],
    [
      "I",
      "t</w>"
    ],
    [
      "w",
      "i"
    ],
    [
      "m",
      "an</w>"
    ],
    [
      "at",
      "es</w>"
    ],
    [
      "it",
      "e</w>"
    ],
    [
      "c",
      "ri"
    ],
    [
      "an",
      "ce</w>"
    ],
    [
      "ev",
      "er</w>"
    ],
    [
      "r",
      "e</w>"
    ],
    [
      "it",
      "ed</w>"
    ],
    [
      "pre",
      "s"
    ],
    [
      "i",
      "c</w>"
    ],
    [
      "m",
      "ore</w>"
    ],
    [
      "in",
      "ter"
    ],
    [
      "ch",
      "ar"
    ],
    [
      "l",
      "es</w>"
    ],
    [
      "pla",
      "y"
    ],
    [
      "u",
      "p</w>"
    ],
    [
      "sp",
      "ec"
    ],
    [
      "an",
      "s</w>"
    ],
    [
      "ti",
      "c</w>"
    ],
    [
      "A",
      "n"
    ],
    [
      "ur",
      "e</w>"
    ],
    [
      "A",
      "u"
    ],
    [
      "m",
      "er"
    ],
    [
      "e",
      "w</w>"
    ],
    [
      "er",
      "al</w>"
    ],
    [
      "es",
      "e</w>"
    ],
    [
      "ad",
      "e</w>"
    ],
    [
      "l",
      "an"
    ],
    [
      "o",
      "ff"
    ],
    [
      "st",
      "r"
    ],
    [
      "m",
      "ar"
    ],
    [
      "p",
      "a"
    ],
    [
      "ou",
      "gh</w>"
    ],
    [
      "e",
      "y</w>"
    ],
    [
      "al",
      "s</w>"
    ],
    [
      "R",
      "o"
    ],
    [
      "b",
      "et"
    ],
    [
      "ing",
      "s</w>"
    ],
    [
      "mo",
      "st</w>"
    ],
    [
      "on",
      "d</w>"
    ],
    [
      "A",
      "r"
    ],
    [
      "t",
      "u"
    ],
    [
      "e",
      "w"
    ],
    [
      "l",
      "ar"
    ],
    [
      "d",
      "ec"
    ],
    [
      "ic",
      "e</w>"
    ],
    [
      "wh",
      "en</w>"
    ],
    [
      "c",
      "es</w>"
    ],
    [
      "r",
      "ac"
    ],
    [
      "s",
      "el"
    ],
    [
      "hi",
      "m</w>"
    ],
    [
      "s",
      "he</w>"
    ],
    [
      "t",
      "e"
    ],
    [
      "s",
      "es</w>"
    ],
    [
      "n",
      "a"
    ],
    [
      "f",
      "u"
    ],
    [
      "n",
      "ing</w>"
    ],
    [
      "shi",
      "p</w>"
    ],
    [
      "g",
      "en"
    ],
    [
      "b",
      "li"
    ],
    [
      "on",
      "ly</w>"
    ],
    [
      "p",
      "s</w>"
    ],
    [
      "c",
      "re"
    ],
    [
      "s",
      "o"
    ],
    [
      "c",
      "ol"
    ],
    [
      "in",
      "ed</w>"
    ],
    [
      "on",
      "g"
    ],
    [
      "b",
      "er"
    ],
    [
      "v",
      "ing</w>"
    ],
    [
      "p",
      "an"
    ],
    [
      "d",
      "uring</w>"
    ],
    [
      "c",
      "ent"
    ],
    [
      "p",
      "p"
    ],
    [
      "th",
      "an</w>"
    ],
    [
      "ac",
      "h"
    ],
    [
      "ear",
      "s</w>"
    ],
    [
      "s",
      "ea"
    ],
    [
      "st",
      "ru"
    ],
    [
      "s",
      "ev"
    ],
    [
      "t",
      "on</w>"
    ],
    [
      "e",
      "d"
    ],
    [
      "we",
      "en</w>"
    ],
    [
      "J",
      "o"
    ],
    [
      "er",
      "n</w>"
    ],
    [
      "a",
      "d</w>"
    ],
    [
      "19",
      "9"
    ],
    [
      "ti",
      "es</w>"
    ],
    [
      "s",
      "y"
    ],
    [
      "t",
      "or"
    ],
    [
      "p",
      "i"
    ],
    [
      "lo",
      "c"
    ],
    [
      "s",
      "ti"
    ],
    [
      "ol",
      "d</w>"
    ],
    [
      "ab",
      "out</w>"
    ],
    [
      "U",
      "n"
    ],
    [
      "m",
      "on"
    ],
    [
      "whi",
      "le</w>"
    ],
    [
      "g",
      "ame</w>"
    ],
    [
      "al",
      "l"
    ],
    [
      "for",
      "e</w>"
    ],
    [
      "i",
      "st"
    ],
    [
      "ac",
      "h</w>"
    ],
    [
      "E",
      "n"
    ],
    [
      "u",
      "m</w>"
    ],
    [
      "ap",
      "p"
    ],
    [
      "in",
      "s</w>"
    ],
    [
      "bet",
      "ween</w>"
    ],
    [
      "l",
      "ater</w>"
    ],
    [
      "c",
      "c"
    ],
    [
      "p",
      "h"
    ],
    [
      "d",
      "o"
    ],
    [
      "ne",
      "w</w>"
    ],
    [
      "at",
      "ing</w>"
    ],
    [
      "th",
      "ree</w>"
    ],
    [
      "g",
      "ra"
    ],
    [
      "c",
      "la"
    ],
    [
      "th",
      "rou"
    ],
    [
      "ar",
      "i"
    ],
    [
      "n",
      "um"
    ],
    [
      "re",
      "lea"
    ],
    [
      "pro",
      "duc"
    ],
    [
      "i",
      "al</w>"
    ],
    [
      "f",
      "ol"
    ],
    [
      "c",
      "oun"
    ],
    [
      "d",
      "es"
    ],
    [
      "g",
      "re"
    ],
    [
      "h",
      "ea"
    ],
    [
      "en",
      "d</w>"
    ],
    [
      "B",
      "ri"
    ],
    [
      "a",
      "re"
    ],
    [
      "oo",
      "k</w>"
    ],
    [
      "k",
      "n"
    ],
    [
      "v",
      "es</w>"
    ],
    [
      "s",
      "ur"
    ],
    [
      "f",
      "f</w>"
    ],
    [
      "g",
      "o"
    ],
    [
      "A",
      "mer"
    ],
    [
      "an",
      "d"
    ],
    [
      "il",
      "l</w>"
    ],
    [
      "Amer",
      "ic"
    ],
    [
      "s",
      "ing</w>"
    ],
    [
      "f",
      "a"
    ],
    [
      "a",
      "tions</w>"
    ],
    [
      "ic",
      "al</w>"
    ],
    [
      "d",
      "ay</w>"
    ],
    [
      "wh",
      "ere</w>"
    ],
    [
      "w",
      "rit"
    ],
    [
      "O",
      "n</w>"
    ],
    [
      "0",
      "00</w>"
    ],
    [
      "be",
      "g"
    ],
    [
      "u",
      "sed</w>"
    ],
    [
      "n",
      "or"
    ],
    [
      "e",
      "g"
    ],
    [
      "ev",
      "el"
    ],
    [
      "b",
      "le</w>"
    ],
    [
      "t",
      "ri"
    ],
    [
      "su",
      "b"
    ],
    [
      "th",
      "ough</w>"
    ],
    [
      "C",
      "om"
    ],
    [
      "i",
      "a</w>"
    ]
  ],
  "config": {
    "train_text": "data/train.txt",
    "eval_text": "data/eval.txt",
    "vocab_size": 8000,
    "pretokenize": "whitespace",
    "lowercase": false,
    "max_train_lines": null,
    "max_eval_lines": null,
    "max_merges": null,
    "tau": 10,
    "alpha": 0.8,
    "sigma": 1.0,
    "batch_size": 100,
    "eig_k": 8,
    "eig_eps": 1e-08,
    "seed": 0,
    "beta": 0.2,
    "sigma_auto": false,
    "deterministic_ties": false,
    "bpe_warmstart": 500,
    "num_seeds": 1,
    "checkpoint_dir": "out_checkpoints",
    "checkpoint_every": 500,
    "train_lm": true,
    "lm_epochs": 2,
    "lm_batch_size": 16,
    "lm_block_size": 128,
    "lm_dim": 128,
    "lm_heads": 4,
    "lm_layers": 2,
    "lm_lr": 0.0003,
    "out_json": null
  }
}