{
  "algo": "spectralbpe",
  "seed": 0,
  "num_merges": 1000,
  "merges": [
    [
      "t",
      "h"
    ],
    [
      "th",
      "e</w>"
    ],
    [
      "i",
      "n"
    ],
    [
      "a",
      "n"
    ],
    [
      "e",
      "d</w>"
    ],
    [
      "e",
      "r"
    ],
    [
      "r",
      "e"
    ],
    [
      "a",
      "r"
    ],
    [
      "t",
      "i"
    ],
    [
      "o",
      "n"
    ],
    [
      "e",
      "n"
    ],
    [
      "e",
      "r</w>"
    ],
    [
      "an",
      "d</w>"
    ],
    [
      "o",
      "r"
    ],
    [
      "o",
      "f</w>"
    ],
    [
      "o",
      "n</w>"
    ],
    [
      "in",
      "g</w>"
    ],
    [
      "i",
      "n</w>"
    ],
    [
      "o",
      "u"
    ],
    [
      "t",
      "o</w>"
    ],
    [
      "a",
      "l"
    ],
    [
      "a",
      "s</w>"
    ],
    [
      "i",
      "t"
    ],
    [
      "s",
      "t"
    ],
    [
      "a",
      "t"
    ],
    [
      "e",
      "s</w>"
    ],
    [
      "r",
      "o"
    ],
    [
      "h",
      "i"
    ],
    [
      "a",
      "c"
    ],
    [
      "h",
      "e</w>"
    ],
    [
      "a",
      "l</w>"
    ],
    [
      "s",
      "i"
    ],
    [
      "a",
      "t</w>"
    ],
    [
      "a",
      "n</w>"
    ],
    [
      "e",
      "l"
    ],
    [
      "r",
      "i"
    ],
    [
      "o",
      "r</w>"
    ],
    [
      "s",
      "t</w>"
    ],
    [
      "e",
      "c"
    ],
    [
      "o",
      "m"
    ],
    [
      "w",
      "as</w>"
    ],
    [
      "i",
      "l"
    ],
    [
      "u",
      "r"
    ],
    [
      "a",
      "m"
    ],
    [
      "e",
      "n</w>"
    ],
    [
      "l",
      "i"
    ],
    [
      "d",
      "i"
    ],
    [
      "e",
      "a"
    ],
    [
      "ti",
      "on</w>"
    ],
    [
      "l",
      "y</w>"
    ],
    [
      "@",
      "-"
    ],
    [
      "@-",
      "@</w>"
    ],
    [
      "T",
      "he</w>"
    ],
    [
      "o",
      "l"
    ],
    [
      "i",
      "c"
    ],
    [
      "l",
      "a"
    ],
    [
      "l",
      "e</w>"
    ],
    [
      "e",
      "m"
    ],
    [
      "i",
      "s</w>"
    ],
    [
      "e",
      "s"
    ],
    [
      "r",
      "a"
    ],
    [
      "h",
      "a"
    ],
    [
      "'",
      "s</w>"
    ],
    [
      "u",
      "n"
    ],
    [
      "th",
      "at</w>"
    ],
    [
      "l",
      "o"
    ],
    [
      "it",
      "h</w>"
    ],
    [
      "f",
      "or</w>"
    ],
    [
      "i",
      "s"
    ],
    [
      "v",
      "e</w>"
    ],
    [
      "en",
      "t</w>"
    ],
    [
      "i",
      "r"
    ],
    [
      "e",
      "t"
    ],
    [
      "b",
      "y</w>"
    ],
    [
      "w",
      "ith</w>"
    ],
    [
      "e",
      "v"
    ],
    [
      "c",
      "h</w>"
    ],
    [
      "c",
      "h"
    ],
    [
      "s",
      "u"
    ],
    [
      "c",
      "on"
    ],
    [
      "en",
      "t"
    ],
    [
      "er",
      "e</w>"
    ],
    [
      "a",
      "g"
    ],
    [
      "p",
      "o"
    ],
    [
      "a",
      "s"
    ],
    [
      "c",
      "e</w>"
    ],
    [
      "er",
      "s</w>"
    ],
    [
      "a",
      "d"
    ],
    [
      "1",
      "9"
    ],
    [
      "b",
      "e"
    ],
    [
      "p",
      "ro"
    ],
    [
      "hi",
      "s</w>"
    ],
    [
      "b",
      "u"
    ],
    [
      "f",
      "or"
    ],
    [
      "ou",
      "n"
    ],
    [
      "g",
      "h"
    ],
    [
      "d",
      "e"
    ],
    [
      "o",
      "v"
    ],
    [
      "c",
      "om"
    ],
    [
      "o",
      "w"
    ],
    [
      "w",
      "h"
    ],
    [
      "t",
      "h</w>"
    ],
    [
      "s",
      "e</w>"
    ],
    [
      "ro",
      "m</w>"
    ],
    [
      "th",
      "e"
    ],
    [
      "ti",
      "on"
    ],
    [
      "e",
      "x"
    ],
    [
      "a",
      "b"
    ],
    [
      "f",
      "rom</w>"
    ],
    [
      "t",
      "ed</w>"
    ],
    [
      "o",
      "p"
    ],
    [
      "s",
      "p"
    ],
    [
      "i",
      "t</w>"
    ],
    [
      "v",
      "i"
    ],
    [
      "a",
      "p"
    ],
    [
      "a",
      "tion</w>"
    ],
    [
      "s",
      "h"
    ],
    [
      "2",
      "0"
    ],
    [
      "t",
      "er</w>"
    ],
    [
      "t",
      "s</w>"
    ],
    [
      "w",
      "hi"
    ],
    [
      "n",
      "o"
    ],
    [
      "a",
      "y</w>"
    ],
    [
      "w",
      "ere</w>"
    ],
    [
      "e",
      "ar"
    ],
    [
      "d",
      "s</w>"
    ],
    [
      "i",
      "m"
    ],
    [
      "o",
      "o"
    ],
    [
      "th",
      "er</w>"
    ],
    [
      "r",
      "u"
    ],
    [
      "q",
      "u"
    ],
    [
      "d",
      "u"
    ],
    [
      "e",
      "p"
    ],
    [
      "at",
      "e</w>"
    ],
    [
      "l",
      "e"
    ],
    [
      "d",
      "ed</w>"
    ],
    [
      "p",
      "re"
    ],
    [
      "t",
      "er"
    ],
    [
      "p",
      "er"
    ],
    [
      "f",
      "f"
    ],
    [
      "l",
      "u"
    ],
    [
      "d",
      "ing</w>"
    ],
    [
      "at",
      "ed</w>"
    ],
    [
      "d",
      "e</w>"
    ],
    [
      "s",
      "ed</w>"
    ],
    [
      "it",
      "y</w>"
    ],
    [
      "in",
      "g"
    ],
    [
      "u",
      "l"
    ],
    [
      "l",
      "d</w>"
    ],
    [
      "ha",
      "d</w>"
    ],
    [
      "re",
      "c"
    ],
    [
      "am",
      "e</w>"
    ],
    [
      "c",
      "i"
    ],
    [
      "m",
      "a"
    ],
    [
      "m",
      "o"
    ],
    [
      "I",
      "n</w>"
    ],
    [
      "i",
      "r</w>"
    ],
    [
      "t",
      "a"
    ],
    [
      "whi",
      "ch</w>"
    ],
    [
      "s",
      "e"
    ],
    [
      "p",
      "l"
    ],
    [
      "on",
      "e</w>"
    ],
    [
      "n",
      "e"
    ],
    [
      "b",
      "er</w>"
    ],
    [
      "al",
      "l</w>"
    ],
    [
      "ar",
      "e</w>"
    ],
    [
      "b",
      "e</w>"
    ],
    [
      "r",
      "an"
    ],
    [
      "w",
      "e"
    ],
    [
      "p",
      "ar"
    ],
    [
      "g",
      "e</w>"
    ],
    [
      "al",
      "ly</w>"
    ],
    [
      "S",
      "t"
    ],
    [
      "ou",
      "t</w>"
    ],
    [
      "g",
      "u"
    ],
    [
      "g",
      "h</w>"
    ],
    [
      "a",
      "u"
    ],
    [
      "s",
      "o</w>"
    ],
    [
      "v",
      "er"
    ],
    [
      "tion",
      "s</w>"
    ],
    [
      "l",
      "ea"
    ],
    [
      "f",
      "ir"
    ],
    [
      "f",
      "i"
    ],
    [
      "u",
      "m"
    ],
    [
      "gh",
      "t</w>"
    ],
    [
      "it",
      "s</w>"
    ],
    [
      "in",
      "c"
    ],
    [
      "ti",
      "m"
    ],
    [
      "on",
      "g</w>"
    ],
    [
      "ar",
      "y</w>"
    ],
    [
      "s",
      "on</w>"
    ],
    [
      "s",
      "c"
    ],
    [
      "m",
      "an"
    ],
    [
      "a",
      "r</w>"
    ],
    [
      "w",
      "or"
    ],
    [
      "at",
      "t"
    ],
    [
      "p",
      "or"
    ],
    [
      "k",
      "e</w>"
    ],
    [
      "in",
      "e</w>"
    ],
    [
      "e",
      "t</w>"
    ],
    [
      "si",
      "on</w>"
    ],
    [
      "r",
      "ou"
    ],
    [
      "bu",
      "t</w>"
    ],
    [
      "d",
      "er</w>"
    ],
    [
      "t",
      "ur"
    ],
    [
      "o",
      "c"
    ],
    [
      "b",
      "o"
    ],
    [
      "T",
      "h"
    ],
    [
      "i",
      "es</w>"
    ],
    [
      "l",
      "ed</w>"
    ],
    [
      "no",
      "t</w>"
    ],
    [
      "ou",
      "ld</w>"
    ],
    [
      "s",
      "er"
    ],
    [
      "20",
      "0"
    ],
    [
      "d",
      "er"
    ],
    [
      "f",
      "ter</w>"
    ],
    [
      "h",
      "er</w>"
    ],
    [
      "t",
      "w"
    ],
    [
      "C",
      "h"
    ],
    [
      "ar",
      "d</w>"
    ],
    [
      "t",
      "o"
    ],
    [
      "fir",
      "st</w>"
    ],
    [
      "ow",
      "n</w>"
    ],
    [
      "ti",
      "c"
    ],
    [
      "the",
      "ir</w>"
    ],
    [
      "or",
      "e</w>"
    ],
    [
      "e",
      "st"
    ],
    [
      "n",
      "i"
    ],
    [
      "p",
      "u"
    ],
    [
      "al",
      "so</w>"
    ],
    [
      "p",
      "la"
    ],
    [
      "con",
      "t"
    ],
    [
      "m",
      "ent</w>"
    ],
    [
      "ou",
      "r"
    ],
    [
      "0",
      "0</w>"
    ],
    [
      "al",
      "i"
    ],
    [
      "s",
      "a"
    ],
    [
      "oun",
      "d</w>"
    ],
    [
      "ag",
      "e</w>"
    ],
    [
      "s",
      "hi"
    ],
    [
      "e",
      "st</w>"
    ],
    [
      "g",
      "i"
    ],
    [
      "du",
      "c"
    ],
    [
      "f",
      "e"
    ],
    [
      "e",
      "l</w>"
    ],
    [
      "ac",
      "k</w>"
    ],
    [
      "k",
      "s</w>"
    ],
    [
      "t",
      "ing</w>"
    ],
    [
      "ha",
      "ve</w>"
    ],
    [
      "om",
      "e</w>"
    ],
    [
      "v",
      "ed</w>"
    ],
    [
      "@",
      "."
    ],
    [
      "@.",
      "@</w>"
    ],
    [
      "es",
      "s</w>"
    ],
    [
      "tw",
      "o</w>"
    ],
    [
      "i",
      "g"
    ],
    [
      "wh",
      "o</w>"
    ],
    [
      "lo",
      "w"
    ],
    [
      "t",
      "e</w>"
    ],
    [
      "b",
      "ec"
    ],
    [
      "en",
      "ce</w>"
    ],
    [
      "be",
      "en</w>"
    ],
    [
      "h",
      "as</w>"
    ],
    [
      "s",
      "ec"
    ],
    [
      "o",
      "ther</w>"
    ],
    [
      "r",
      "y</w>"
    ],
    [
      "ent",
      "s</w>"
    ],
    [
      "st",
      "or"
    ],
    [
      "ea",
      "r</w>"
    ],
    [
      "at",
      "er</w>"
    ],
    [
      "m",
      "u"
    ],
    [
      "@",
      ","
    ],
    [
      "@,",
      "@</w>"
    ],
    [
      "20",
      "1"
    ],
    [
      "c",
      "o"
    ],
    [
      "i",
      "d"
    ],
    [
      "ov",
      "er"
    ],
    [
      "A",
      "l"
    ],
    [
      "ti",
      "ve</w>"
    ],
    [
      "u",
      "s"
    ],
    [
      "th",
      "is</w>"
    ],
    [
      "ur",
      "ing</w>"
    ],
    [
      "ou",
      "r</w>"
    ],
    [
      "el",
      "y</w>"
    ],
    [
      "m",
      "il"
    ],
    [
      "on",
      "s</w>"
    ],
    [
      "k",
      "ing</w>"
    ],
    [
      "ou",
      "s</w>"
    ],
    [
      "s",
      "s</w>"
    ],
    [
      "re",
      "n"
    ],
    [
      "H",
      "e</w>"
    ],
    [
      "u",
      "s</w>"
    ],
    [
      "I",
      "n"
    ],
    [
      "em",
      "ber</w>"
    ],
    [
      "s",
      "h</w>"
    ],
    [
      "n",
      "ed</w>"
    ],
    [
      "i",
      "d</w>"
    ],
    [
      "p",
      "ri"
    ],
    [
      "tim",
      "e</w>"
    ],
    [
      "p",
      "e"
    ],
    [
      "for",
      "m"
    ],
    [
      "an",
      "t</w>"
    ],
    [
      "f",
      "in"
    ],
    [
      "m",
      "in"
    ],
    [
      "the",
      "y</w>"
    ],
    [
      "com",
      "m"
    ],
    [
      "a",
      "y"
    ],
    [
      "1",
      "8"
    ],
    [
      "l",
      "and</w>"
    ],
    [
      "a",
      "v"
    ],
    [
      "el",
      "l</w>"
    ],
    [
      "e",
      "i"
    ],
    [
      "inc",
      "lu"
    ],
    [
      "M",
      "ar"
    ],
    [
      "t",
      "y</w>"
    ],
    [
      "si",
      "g"
    ],
    [
      "a",
      "fter</w>"
    ],
    [
      "m",
      "e"
    ],
    [
      "ac",
      "e</w>"
    ],
    [
      "re",
      "e</w>"
    ],
    [
      "t",
      "ra"
    ],
    [
      "tion",
      "al</w>"
    ],
    [
      "h",
      "o"
    ],
    [
      "ab",
      "le</w>"
    ],
    [
      "r",
      "it"
    ],
    [
      "w",
      "ould</w>"
    ],
    [
      "a",
      "in"
    ],
    [
      "f",
      "il"
    ],
    [
      "ri",
      "c"
    ],
    [
      "o",
      "g"
    ],
    [
      "in",
      "to</w>"
    ],
    [
      "ov",
      "er</w>"
    ],
    [
      "t",
      "en"
    ],
    [
      "w",
      "ay</w>"
    ],
    [
      "c",
      "a"
    ],
    [
      "f",
      "t</w>"
    ],
    [
      "k",
      "ed</w>"
    ],
    [
      "re",
      "s</w>"
    ],
    [
      "I",
      "t</w>"
    ],
    [
      "w",
      "i"
    ],
    [
      "m",
      "an</w>"
    ],
    [
      "at",
      "es</w>"
    ],
    [
      "it",
      "e</w>"
    ],
    [
      "c",
      "ri"
    ],
    [
      "an",
      "ce</w>"
    ],
    [
      "ev",
      "er</w>"
    ],
    [
      "r",
      "e</w>"
    ],
    [
      "it",
      "ed</w>"
    ],
    [
      "pre",
      "s"
    ],
    [
      "i",
      "c</w>"
    ],
    [
      "m",
      "ore</w>"
    ],
    [
      "in",
      "ter"
    ],
    [
      "ch",
      "ar"
    ],
    [
      "l",
      "es</w>"
    ],
    [
      "pla",
      "y"
    ],
    [
      "u",
      "p</w>"
    ],
    [
      "sp",
      "ec"
    ],
    [
      "an",
      "s</w>"
    ],
    [
      "ti",
      "c</w>"
    ],
    [
      "A",
      "n"
    ],
    [
      "ur",
      "e</w>"
    ],
    [
      "A",
      "u"
    ],
    [
      "m",
      "er"
    ],
    [
      "e",
      "w</w>"
    ],
    [
      "er",
      "al</w>"
    ],
    [
      "es",
      "e</w>"
    ],
    [
      "ad",
      "e</w>"
    ],
    [
      "l",
      "an"
    ],
    [
      "o",
      "ff"
    ],
    [
      "st",
      "r"
    ],
    [
      "m",
      "ar"
    ],
    [
      "p",
      "a"
    ],
    [
      "ou",
      "gh</w>"
    ],
    [
      "e",
      "y</w>"
    ],
    [
      "al",
      "s</w>"
    ],
    [
      "R",
      "o"
    ],
    [
      "b",
      "et"
    ],
    [
      "ing",
      "s</w>"
    ],
    [
      "mo",
      "st</w>"
    ],
    [
      "on",
      "d</w>"
    ],
    [
      "A",
      "r"
    ],
    [
      "t",
      "u"
    ],
    [
      "e",
      "w"
    ],
    [
      "l",
      "ar"
    ],
    [
      "d",
      "ec"
    ],
    [
      "ic",
      "e</w>"
    ],
    [
      "wh",
      "en</w>"
    ],
    [
      "c",
      "es</w>"
    ],
    [
      "r",
      "ac"
    ],
    [
      "s",
      "el"
    ],
    [
      "hi",
      "m</w>"
    ],
    [
      "s",
      "he</w>"
    ],
    [
      "t",
      "e"
    ],
    [
      "s",
      "es</w>"
    ],
    [
      "n",
      "a"
    ],
    [
      "f",
      "u"
    ],
    [
      "n",
      "ing</w>"
    ],
    [
      "shi",
      "p</w>"
    ],
    [
      "g",
      "en"
    ],
    [
      "b",
      "li"
    ],
    [
      "on",
      "ly</w>"
    ],
    [
      "p",
      "s</w>"
    ],
    [
      "c",
      "re"
    ],
    [
      "s",
      "o"
    ],
    [
      "c",
      "ol"
    ],
    [
      "in",
      "ed</w>"
    ],
    [
      "on",
      "g"
    ],
    [
      "b",
      "er"
    ],
    [
      "v",
      "ing</w>"
    ],
    [
      "p",
      "an"
    ],
    [
      "d",
      "uring</w>"
    ],
    [
      "c",
      "ent"
    ],
    [
      "p",
      "p"
    ],
    [
      "th",
      "an</w>"
    ],
    [
      "ac",
      "h"
    ],
    [
      "ear",
      "s</w>"
    ],
    [
      "s",
      "ea"
    ],
    [
      "st",
      "ru"
    ],
    [
      "s",
      "ev"
    ],
    [
      "t",
      "on</w>"
    ],
    [
      "e",
      "d"
    ],
    [
      "we",
      "en</w>"
    ],
    [
      "J",
      "o"
    ],
    [
      "er",
      "n</w>"
    ],
    [
      "a",
      "d</w>"
    ],
    [
      "19",
      "9"
    ],
    [
      "ti",
      "es</w>"
    ],
    [
      "s",
      "y"
    ],
    [
      "t",
      "or"
    ],
    [
      "p",
      "i"
    ],
    [
      "lo",
      "c"
    ],
    [
      "s",
      "ti"
    ],
    [
      "ol",
      "d</w>"
    ],
    [
      "ab",
      "out</w>"
    ],
    [
      "U",
      "n"
    ],
    [
      "m",
      "on"
    ],
    [
      "whi",
      "le</w>"
    ],
    [
      "g",
      "ame</w>"
    ],
    [
      "al",
      "l"
    ],
    [
      "for",
      "e</w>"
    ],
    [
      "i",
      "st"
    ],
    [
      "ac",
      "h</w>"
    ],
    [
      "E",
      "n"
    ],
    [
      "u",
      "m</w>"
    ],
    [
      "ap",
      "p"
    ],
    [
      "in",
      "s</w>"
    ],
    [
      "bet",
      "ween</w>"
    ],
    [
      "l",
      "ater</w>"
    ],
    [
      "c",
      "c"
    ],
    [
      "p",
      "h"
    ],
    [
      "d",
      "o"
    ],
    [
      "ne",
      "w</w>"
    ],
    [
      "at",
      "ing</w>"
    ],
    [
      "th",
      "ree</w>"
    ],
    [
      "g",
      "ra"
    ],
    [
      "c",
      "la"
    ],
    [
      "th",
      "rou"
    ],
    [
      "ar",
      "i"
    ],
    [
      "n",
      "um"
    ],
    [
      "re",
      "lea"
    ],
    [
      "pro",
      "duc"
    ],
    [
      "i",
      "al</w>"
    ],
    [
      "f",
      "ol"
    ],
    [
      "c",
      "oun"
    ],
    [
      "d",
      "es"
    ],
    [
      "g",
      "re"
    ],
    [
      "h",
      "ea"
    ],
    [
      "en",
      "d</w>"
    ],
    [
      "B",
      "ri"
    ],
    [
      "a",
      "re"
    ],
    [
      "oo",
      "k</w>"
    ],
    [
      "k",
      "n"
    ],
    [
      "v",
      "es</w>"
    ],
    [
      "s",
      "ur"
    ],
    [
      "f",
      "f</w>"
    ],
    [
      "g",
      "o"
    ],
    [
      "A",
      "mer"
    ],
    [
      "an",
      "d"
    ],
    [
      "il",
      "l</w>"
    ],
    [
      "Amer",
      "ic"
    ],
    [
      "s",
      "ing</w>"
    ],
    [
      "f",
      "a"
    ],
    [
      "a",
      "tions</w>"
    ],
    [
      "ic",
      "al</w>"
    ],
    [
      "d",
      "ay</w>"
    ],
    [
      "wh",
      "ere</w>"
    ],
    [
      "w",
      "rit"
    ],
    [
      "O",
      "n</w>"
    ],
    [
      "0",
      "00</w>"
    ],
    [
      "be",
      "g"
    ],
    [
      "u",
      "sed</w>"
    ],
    [
      "n",
      "or"
    ],
    [
      "e",
      "g"
    ],
    [
      "ev",
      "el"
    ],
    [
      "b",
      "le</w>"
    ],
    [
      "t",
      "ri"
    ],
    [
      "su",
      "b"
    ],
    [
      "th",
      "ough</w>"
    ],
    [
      "C",
      "om"
    ],
    [
      "i",
      "a</w>"
    ],
    [
      "sea",
      "son</w>"
    ],
    [
      "be",
      "fore</w>"
    ],
    [
      "fol",
      "low"
    ],
    [
      "pu",
      "bli"
    ],
    [
      "throu",
      "gh</w>"
    ],
    [
      "sec",
      "ond</w>"
    ],
    [
      "ow",
      "ever</w>"
    ],
    [
      "T",
      "his</w>"
    ],
    [
      "num",
      "ber</w>"
    ],
    [
      "fil",
      "m</w>"
    ],
    [
      "Un",
      "ited</w>"
    ],
    [
      "N",
      "ew</w>"
    ],
    [
      "stru",
      "c"
    ],
    [
      "kn",
      "own</w>"
    ],
    [
      "m",
      "ade</w>"
    ],
    [
      "y",
      "ears</w>"
    ],
    [
      "bec",
      "ame</w>"
    ],
    [
      "ag",
      "ain"
    ],
    [
      "oo",
      "d</w>"
    ],
    [
      "su",
      "ch</w>"
    ],
    [
      "wi",
      "th"
    ],
    [
      "bu",
      "il"
    ],
    [
      "char",
      "ac"
    ],
    [
      "inclu",
      "ding</w>"
    ],
    [
      "evel",
      "op"
    ],
    [
      "em",
      "ent</w>"
    ],
    [
      "si",
      "c</w>"
    ],
    [
      "ou",
      "th</w>"
    ],
    [
      "sev",
      "eral</w>"
    ],
    [
      "ser",
      "ies</w>"
    ],
    [
      "wor",
      "k</w>"
    ],
    [
      "rec",
      "or"
    ],
    [
      "w",
      "ell</w>"
    ],
    [
      "des",
      "cri"
    ],
    [
      "A",
      "fter</w>"
    ],
    [
      "19",
      "8"
    ],
    [
      "lo",
      "w</w>"
    ],
    [
      "sa",
      "id</w>"
    ],
    [
      "Jo",
      "h"
    ],
    [
      "es",
      "s"
    ],
    [
      "tur",
      "e</w>"
    ],
    [
      "ep",
      "is"
    ],
    [
      "ear",
      "ly</w>"
    ],
    [
      "sel",
      "f</w>"
    ],
    [
      "la",
      "r</w>"
    ],
    [
      "ec",
      "ted</w>"
    ],
    [
      "au",
      "se</w>"
    ],
    [
      "de",
      "sig"
    ],
    [
      "so",
      "ci"
    ],
    [
      "relea",
      "sed</w>"
    ],
    [
      "ar",
      "ds</w>"
    ],
    [
      "man",
      "y</w>"
    ],
    [
      "en",
      "ti"
    ],
    [
      "al",
      "led</w>"
    ],
    [
      "En",
      "g"
    ],
    [
      "b",
      "as"
    ],
    [
      "Americ",
      "an</w>"
    ],
    [
      "1",
      "0</w>"
    ],
    [
      "Au",
      "str"
    ],
    [
      "ay",
      "s</w>"
    ],
    [
      "am",
      "es</w>"
    ],
    [
      "par",
      "t</w>"
    ],
    [
      "over",
      "n"
    ],
    [
      "un",
      "der</w>"
    ],
    [
      "C",
      "on"
    ],
    [
      "ei",
      "ved</w>"
    ],
    [
      "po",
      "in"
    ],
    [
      "mil",
      "li"
    ],
    [
      "L",
      "i"
    ],
    [
      "el",
      "l"
    ],
    [
      "f",
      "our</w>"
    ],
    [
      "hi",
      "gh"
    ],
    [
      "t",
      "en</w>"
    ],
    [
      "re",
      "ma"
    ],
    [
      "off",
      "ic"
    ],
    [
      "fu",
      "l</w>"
    ],
    [
      "J",
      "u"
    ],
    [
      "di",
      "ff"
    ],
    [
      "v",
      "er</w>"
    ],
    [
      "na",
      "tional</w>"
    ],
    [
      "St",
      "ates</w>"
    ],
    [
      "ch",
      "an"
    ],
    [
      "at",
      "h</w>"
    ],
    [
      "vi",
      "ew"
    ],
    [
      "tic",
      "al</w>"
    ],
    [
      "sh",
      "o"
    ],
    [
      "ol",
      "og"
    ],
    [
      "a",
      "ir"
    ],
    [
      "I",
      "I</w>"
    ],
    [
      "ta",
      "in</w>"
    ],
    [
      "rou",
      "p</w>"
    ],
    [
      "S",
      "he</w>"
    ],
    [
      "com",
      "pan"
    ],
    [
      "ap",
      "pro"
    ],
    [
      "U",
      "ni"
    ],
    [
      "Th",
      "ey</w>"
    ],
    [
      "r",
      "ed</w>"
    ],
    [
      "pl",
      "ace</w>"
    ],
    [
      "shi",
      "ps</w>"
    ],
    [
      "sy",
      "st"
    ],
    [
      "again",
      "st</w>"
    ],
    [
      "the",
      "m</w>"
    ],
    [
      "al",
      "bu"
    ],
    [
      "y",
      "ear</w>"
    ],
    [
      "epis",
      "o"
    ],
    [
      "m",
      "ov"
    ],
    [
      "19",
      "4"
    ],
    [
      "su",
      "cc"
    ],
    [
      "bo",
      "th</w>"
    ],
    [
      "el",
      "d</w>"
    ],
    [
      "W",
      "h"
    ],
    [
      "th",
      "ere</w>"
    ],
    [
      "si",
      "de</w>"
    ],
    [
      "s",
      "ome</w>"
    ],
    [
      "be",
      "ing</w>"
    ],
    [
      "di",
      "rec"
    ],
    [
      "ro",
      "w"
    ],
    [
      "em",
      "p"
    ],
    [
      "N",
      "or"
    ],
    [
      "bec",
      "ause</w>"
    ],
    [
      "P",
      "ar"
    ],
    [
      "stor",
      "y</w>"
    ],
    [
      "mu",
      "sic</w>"
    ],
    [
      "ser",
      "v"
    ],
    [
      "beg",
      "an</w>"
    ],
    [
      "c",
      "hi"
    ],
    [
      "Au",
      "gu"
    ],
    [
      "ti",
      "sh</w>"
    ],
    [
      "il",
      "l"
    ],
    [
      "cont",
      "in"
    ],
    [
      "Austr",
      "ali"
    ],
    [
      "milli",
      "on</w>"
    ],
    [
      "ec",
      "t</w>"
    ],
    [
      "app",
      "ear"
    ],
    [
      "d",
      "evelop"
    ],
    [
      "pe",
      "op"
    ],
    [
      "is",
      "h</w>"
    ],
    [
      "to",
      "ber</w>"
    ],
    [
      "f",
      "ic"
    ],
    [
      "fe",
      "at"
    ],
    [
      "2",
      "0</w>"
    ],
    [
      "a",
      "in</w>"
    ],
    [
      "en",
      "g"
    ],
    [
      "t",
      "r"
    ],
    [
      "overn",
      "ment</w>"
    ],
    [
      "re",
      "tur"
    ],
    [
      "j",
      "u"
    ],
    [
      "no",
      "w</w>"
    ],
    [
      "po",
      "li"
    ],
    [
      "an",
      "n"
    ],
    [
      "oo",
      "l</w>"
    ],
    [
      "com",
      "pl"
    ],
    [
      "e",
      "b"
    ],
    [
      "Joh",
      "n</w>"
    ],
    [
      "ac",
      "k"
    ],
    [
      "i",
      "z"
    ],
    [
      "sh",
      "ed</w>"
    ],
    [
      "ou",
      "se</w>"
    ],
    [
      "H",
      "owever</w>"
    ],
    [
      "1",
      "7"
    ],
    [
      "U",
      "S</w>"
    ],
    [
      "J",
      "un"
    ],
    [
      "wh",
      "at</w>"
    ],
    [
      "Ju",
      "ly</w>"
    ],
    [
      "cent",
      "ur"
    ],
    [
      "0",
      "s</w>"
    ],
    [
      "C",
      "ol"
    ],
    [
      "F",
      "ran"
    ],
    [
      "charac",
      "ter</w>"
    ],
    [
      ".",
      "."
    ],
    [
      "lar",
      "ge</w>"
    ],
    [
      "fi",
      "ve</w>"
    ],
    [
      "Mar",
      "ch</w>"
    ],
    [
      "G",
      "er"
    ],
    [
      "are",
      "a</w>"
    ],
    [
      "inclu",
      "ded</w>"
    ],
    [
      "A",
      "pri"
    ],
    [
      "S",
      "ep"
    ],
    [
      "le",
      "ft</w>"
    ],
    [
      "D",
      "uring</w>"
    ],
    [
      "spec",
      "ies</w>"
    ],
    [
      "pro",
      "vi"
    ],
    [
      "per",
      "for"
    ],
    [
      "ing",
      "le</w>"
    ],
    [
      "se",
      "qu"
    ],
    [
      "wor",
      "ld</w>"
    ],
    [
      "sti",
      "tu"
    ],
    [
      "M",
      "ay</w>"
    ],
    [
      "lu",
      "b</w>"
    ],
    [
      "Ch",
      "ri"
    ],
    [
      "sp",
      "on"
    ],
    [
      "la",
      "tion</w>"
    ],
    [
      "Uni",
      "ver"
    ],
    [
      "st",
      "ate</w>"
    ],
    [
      "am",
      "pi"
    ],
    [
      "con",
      "struc"
    ],
    [
      "Eng",
      "land</w>"
    ],
    [
      "de",
      "ath</w>"
    ],
    [
      "por",
      "ted</w>"
    ],
    [
      "with",
      "out</w>"
    ],
    [
      "albu",
      "m</w>"
    ],
    [
      "episo",
      "de</w>"
    ],
    [
      "Bri",
      "tish</w>"
    ],
    [
      "19",
      "7"
    ],
    [
      "po",
      "si"
    ],
    [
      "th",
      "en</w>"
    ],
    [
      "contin",
      "u"
    ],
    [
      "c",
      "ap"
    ],
    [
      "a",
      "w"
    ],
    [
      "ar",
      "ri"
    ],
    [
      "il",
      "y</w>"
    ],
    [
      "rec",
      "eived</w>"
    ],
    [
      "in",
      "ce</w>"
    ],
    [
      "ti",
      "v"
    ],
    [
      "l",
      "ine</w>"
    ],
    [
      "or",
      "ig"
    ],
    [
      "peop",
      "le</w>"
    ],
    [
      "s",
      "ong</w>"
    ],
    [
      "por",
      "t</w>"
    ],
    [
      "m",
      "at"
    ],
    [
      "t",
      "ro"
    ],
    [
      "y",
      "ing</w>"
    ],
    [
      "su",
      "p"
    ],
    [
      "f",
      "ac"
    ],
    [
      "j",
      "o"
    ],
    [
      "me",
      "di"
    ],
    [
      "ch",
      "ool</w>"
    ],
    [
      "li",
      "ke</w>"
    ],
    [
      "3",
      "0</w>"
    ],
    [
      "Augu",
      "st</w>"
    ],
    [
      "n",
      "o</w>"
    ],
    [
      "g",
      "r"
    ],
    [
      "per",
      "i"
    ],
    [
      "em",
      "b"
    ],
    [
      "is",
      "h"
    ],
    [
      "sho",
      "w</w>"
    ],
    [
      "ov",
      "ember</w>"
    ],
    [
      "en",
      "d"
    ],
    [
      "compl",
      "et"
    ],
    [
      "hi",
      "gh</w>"
    ],
    [
      "Apri",
      "l</w>"
    ],
    [
      "re",
      "as"
    ],
    [
      "ec",
      "tion</w>"
    ],
    [
      "e",
      "ach</w>"
    ],
    [
      "1",
      "2</w>"
    ],
    [
      "gu",
      "e</w>"
    ],
    [
      "..",
      ".</w>"
    ],
    [
      "perfor",
      "man"
    ],
    [
      "op",
      "er"
    ],
    [
      "ra",
      "ft</w>"
    ],
    [
      "mu",
      "ch</w>"
    ],
    [
      "vi",
      "ew</w>"
    ],
    [
      "fi",
      "eld</w>"
    ],
    [
      "der",
      "ed</w>"
    ],
    [
      "att",
      "emp"
    ],
    [
      "Nor",
      "th</w>"
    ],
    [
      "pl",
      "an"
    ],
    [
      "Ger",
      "man</w>"
    ],
    [
      "ir",
      "d</w>"
    ],
    [
      "ser",
      "ved</w>"
    ],
    [
      "W",
      "ar</w>"
    ],
    [
      "eb",
      "ru"
    ],
    [
      "tic",
      "s</w>"
    ],
    [
      "succ",
      "ess"
    ],
    [
      "with",
      "in</w>"
    ],
    [
      "relea",
      "se</w>"
    ],
    [
      "ou",
      "ght</w>"
    ],
    [
      "st",
      "ern</w>"
    ],
    [
      "Th",
      "ere</w>"
    ],
    [
      "2",
      "5</w>"
    ],
    [
      "ent",
      "ly</w>"
    ],
    [
      "tr",
      "ack</w>"
    ],
    [
      "ag",
      "ain</w>"
    ],
    [
      "bec",
      "ome</w>"
    ],
    [
      "tim",
      "es</w>"
    ],
    [
      "publi",
      "c</w>"
    ],
    [
      "writ",
      "ten</w>"
    ],
    [
      "fin",
      "al</w>"
    ],
    [
      "est",
      "ab"
    ],
    [
      "el",
      "ev"
    ],
    [
      ".",
      "S"
    ],
    [
      "C",
      "oun"
    ],
    [
      "sig",
      "ned</w>"
    ],
    [
      "ing",
      "ton</w>"
    ],
    [
      "Al",
      "though</w>"
    ],
    [
      "ic",
      "tor"
    ],
    [
      "ta",
      "k"
    ],
    [
      "gh",
      "ts</w>"
    ],
    [
      "In",
      "ter"
    ],
    [
      "al",
      "low"
    ],
    [
      "ver",
      "sion</w>"
    ],
    [
      "200",
      "9</w>"
    ],
    [
      "201",
      "1</w>"
    ],
    [
      "F",
      "ren"
    ],
    [
      "to",
      "p</w>"
    ],
    [
      "cla",
      "im"
    ],
    [
      "H",
      "is</w>"
    ],
    [
      "ha",
      "ving</w>"
    ],
    [
      "A",
      "cc"
    ],
    [
      "ur",
      "ther</w>"
    ],
    [
      "ea",
      "m</w>"
    ],
    [
      "19",
      "6"
    ],
    [
      "con",
      "si"
    ],
    [
      "orig",
      "in"
    ],
    [
      "di",
      "s"
    ],
    [
      "pl",
      "ac"
    ],
    [
      "m",
      "is"
    ],
    [
      "c",
      "ould</w>"
    ],
    [
      "an",
      "t"
    ],
    [
      "su",
      "l"
    ],
    [
      "p",
      "as"
    ],
    [
      "5",
      "0</w>"
    ],
    [
      "th",
      "ese</w>"
    ],
    [
      "o",
      "b"
    ],
    [
      "w",
      "ard</w>"
    ],
    [
      "inc",
      "reas"
    ],
    [
      "W",
      "il"
    ],
    [
      "a",
      "k"
    ],
    [
      "ti",
      "l</w>"
    ],
    [
      "el",
      "i"
    ],
    [
      "N",
      "ovember</w>"
    ],
    [
      "or",
      "ld</w>"
    ],
    [
      "st",
      "ar"
    ],
    [
      "le",
      "y</w>"
    ],
    [
      "v",
      "ol"
    ],
    [
      "follow",
      "ing</w>"
    ],
    [
      "po",
      "pu"
    ],
    [
      "r",
      "on"
    ],
    [
      "posi",
      "tion</w>"
    ],
    [
      "S",
      "h"
    ],
    [
      "ma",
      "j"
    ],
    [
      "1",
      "5</w>"
    ],
    [
      "f",
      "e</w>"
    ],
    [
      "n",
      "am"
    ],
    [
      "G",
      "re"
    ],
    [
      "cont",
      "ro"
    ],
    [
      "at",
      "ely</w>"
    ],
    [
      "d",
      "ge</w>"
    ],
    [
      "se",
      "t</w>"
    ],
    [
      "et",
      "s</w>"
    ],
    [
      "ebru",
      "ary</w>"
    ],
    [
      "we",
      "e"
    ],
    [
      "al",
      "ong</w>"
    ],
    [
      "li",
      "sh</w>"
    ],
    [
      "un",
      "der"
    ],
    [
      "gr",
      "ound</w>"
    ],
    [
      "u",
      "se</w>"
    ],
    [
      "att",
      "le</w>"
    ],
    [
      "diff",
      "er"
    ],
    [
      "ec",
      "ember</w>"
    ],
    [
      "Fren",
      "ch</w>"
    ],
    [
      "vi",
      "sion</w>"
    ],
    [
      "Wh",
      "en</w>"
    ],
    [
      "ig",
      "n</w>"
    ],
    [
      "form",
      "ed</w>"
    ],
    [
      "J",
      "ap"
    ],
    [
      "g",
      "roup</w>"
    ],
    [
      "ju",
      "st</w>"
    ],
    [
      "em",
      "ents</w>"
    ],
    [
      "nor",
      "th</w>"
    ],
    [
      "hea",
      "d</w>"
    ],
    [
      "sup",
      "port</w>"
    ],
    [
      "ri",
      "bu"
    ],
    [
      "emb",
      "ers</w>"
    ],
    [
      "publi",
      "shed</w>"
    ],
    [
      "U",
      ".S"
    ],
    [
      "op",
      "en"
    ],
    [
      "pres",
      "ent"
    ],
    [
      "200",
      "8</w>"
    ],
    [
      "hi",
      "story</w>"
    ],
    [
      "ho",
      "w</w>"
    ],
    [
      "retur",
      "ned</w>"
    ],
    [
      "ta",
      "ke</w>"
    ],
    [
      "par",
      "tic"
    ],
    [
      "ic",
      "k</w>"
    ],
    [
      "man",
      "ag"
    ],
    [
      "ann",
      "oun"
    ],
    [
      "inclu",
      "de</w>"
    ],
    [
      "2",
      "1</w>"
    ],
    [
      "de",
      "o</w>"
    ],
    [
      "201",
      "2</w>"
    ],
    [
      "ex",
      "ten"
    ],
    [
      "sh",
      "ow"
    ],
    [
      "serv",
      "ice</w>"
    ],
    [
      "performan",
      "ce</w>"
    ],
    [
      "gh",
      "out</w>"
    ],
    [
      "fa",
      "ther</w>"
    ],
    [
      "sig",
      "ni"
    ],
    [
      "buil",
      "ding</w>"
    ],
    [
      "ch",
      "es</w>"
    ],
    [
      "ei",
      "ght</w>"
    ],
    [
      "qu",
      "ir"
    ],
    [
      "fi",
      "c</w>"
    ],
    [
      "develop",
      "ment</w>"
    ],
    [
      "rema",
      "ined</w>"
    ],
    [
      "lan",
      "ds</w>"
    ],
    [
      "og",
      "ra"
    ],
    [
      "poli",
      "tical</w>"
    ],
    [
      "mil",
      "ar</w>"
    ],
    [
      "18",
      "9"
    ],
    [
      "un",
      "til</w>"
    ],
    [
      "t",
      "eam</w>"
    ],
    [
      "a",
      "m</w>"
    ],
    [
      "W",
      "orld</w>"
    ],
    [
      "po",
      "s"
    ],
    [
      "con",
      "c"
    ],
    [
      "descri",
      "b"
    ],
    [
      "o",
      "se</w>"
    ],
    [
      "i",
      "l</w>"
    ],
    [
      "si",
      "d"
    ],
    [
      "com",
      "p"
    ],
    [
      "19",
      "5"
    ],
    [
      "li",
      "fe</w>"
    ],
    [
      "di",
      "d</w>"
    ],
    [
      "ar",
      "m"
    ],
    [
      "re",
      "sul"
    ],
    [
      "centur",
      "y</w>"
    ],
    [
      "th",
      "ern</w>"
    ],
    [
      "al",
      "e</w>"
    ],
    [
      "f",
      "ound</w>"
    ],
    [
      "D",
      "ecember</w>"
    ],
    [
      "l",
      "in"
    ],
    [
      "am",
      "ily</w>"
    ],
    [
      "v",
      "ari"
    ],
    [
      "st",
      "u"
    ],
    [
      "we",
      "st</w>"
    ],
    [
      "Y",
      "or"
    ],
    [
      "e",
      "ff"
    ],
    [
      "an",
      "other</w>"
    ],
    [
      "1",
      "1</w>"
    ],
    [
      "ow",
      "n"
    ],
    [
      "tiv",
      "ely</w>"
    ],
    [
      "w",
      "ill</w>"
    ],
    [
      "P",
      "ro"
    ],
    [
      "er",
      "ed</w>"
    ],
    [
      "Eng",
      "lish</w>"
    ],
    [
      "vi",
      "deo</w>"
    ],
    [
      "il",
      "ity</w>"
    ],
    [
      "F",
      "ebruary</w>"
    ],
    [
      "j",
      "ect</w>"
    ],
    [
      "consi",
      "dered</w>"
    ],
    [
      "lar",
      "g"
    ],
    [
      "mat",
      "ch</w>"
    ],
    [
      "maj",
      "or</w>"
    ],
    [
      "ma",
      "ke</w>"
    ],
    [
      "201",
      "0</w>"
    ],
    [
      "is",
      "su"
    ],
    [
      "ec",
      "h"
    ],
    [
      "buil",
      "t</w>"
    ],
    [
      "A",
      "s</w>"
    ],
    [
      "origin",
      "al</w>"
    ],
    [
      "S",
      "outh</w>"
    ],
    [
      "en",
      "ded</w>"
    ],
    [
      "ic",
      "k"
    ],
    [
      "at",
      "ure</w>"
    ],
    [
      "U.S",
      ".</w>"
    ],
    [
      "differ",
      "ent</w>"
    ],
    [
      "ev",
      "en</w>"
    ],
    [
      "produc",
      "tion</w>"
    ],
    [
      "ti",
      "ci"
    ],
    [
      "200",
      "7</w>"
    ],
    [
      "signi",
      "fic"
    ],
    [
      "fe",
      "w</w>"
    ],
    [
      "2",
      "4</w>"
    ],
    [
      "chan",
      "ge</w>"
    ],
    [
      "ri",
      "ght</w>"
    ],
    [
      "throu",
      "ghout</w>"
    ],
    [
      "C",
      "hi"
    ],
    [
      "ta",
      "ined</w>"
    ],
    [
      "form",
      "er</w>"
    ],
    [
      "row",
      "n</w>"
    ],
    [
      "Th",
      "ese</w>"
    ],
    [
      "att",
      "ack</w>"
    ],
    [
      "it",
      "ary</w>"
    ],
    [
      "ap",
      "poin"
    ],
    [
      "bo",
      "ard</w>"
    ],
    [
      "tro",
      "duc"
    ],
    [
      "E",
      "x"
    ],
    [
      "L",
      "ea"
    ],
    [
      "mo",
      "der"
    ],
    [
      "ampi",
      "on"
    ],
    [
      "Coun",
      "ty</w>"
    ],
    [
      "for",
      "ces</w>"
    ],
    [
      "fin",
      "ish"
    ],
    [
      "cla",
      "ss</w>"
    ],
    [
      "are",
      "as</w>"
    ],
    [
      "pa",
      "ign</w>"
    ],
    [
      "ur",
      "ren"
    ],
    [
      "ag",
      "es</w>"
    ],
    [
      "sh",
      "ould</w>"
    ],
    [
      "success",
      "ful</w>"
    ],
    [
      "per",
      "formed</w>"
    ],
    [
      "im",
      "por"
    ],
    [
      "J",
      "ames</w>"
    ],
    [
      "gh",
      "ter</w>"
    ],
    [
      "ex",
      "peri"
    ],
    [
      "popu",
      "lation</w>"
    ],
    [
      "r",
      "ing</w>"
    ],
    [
      "wee",
      "k</w>"
    ],
    [
      "succ",
      "ess</w>"
    ]
  ],
  "config": {
    "train_text": "data/train.txt",
    "eval_text": "data/eval.txt",
    "vocab_size": 8000,
    "pretokenize": "whitespace",
    "lowercase": false,
    "max_train_lines": null,
    "max_eval_lines": null,
    "max_merges": null,
    "tau": 10,
    "alpha": 0.8,
    "sigma": 1.0,
    "batch_size": 100,
    "eig_k": 8,
    "eig_eps": 1e-08,
    "seed": 0,
    "beta": 0.2,
    "sigma_auto": false,
    "deterministic_ties": false,
    "bpe_warmstart": 500,
    "num_seeds": 1,
    "checkpoint_dir": "out_checkpoints",
    "checkpoint_every": 500,
    "train_lm": true,
    "lm_epochs": 2,
    "lm_batch_size": 16,
    "lm_block_size": 128,
    "lm_dim": 128,
    "lm_heads": 4,
    "lm_layers": 2,
    "lm_lr": 0.0003,
    "out_json": null
  }
}