{
  "algo": "spectralbpe",
  "seed": 0,
  "num_merges": 500,
  "merges": [
    [
      "t",
      "h"
    ],
    [
      "th",
      "e</w>"
    ],
    [
      "i",
      "n"
    ],
    [
      "a",
      "n"
    ],
    [
      "e",
      "d</w>"
    ],
    [
      "e",
      "r"
    ],
    [
      "r",
      "e"
    ],
    [
      "a",
      "r"
    ],
    [
      "t",
      "i"
    ],
    [
      "o",
      "n"
    ],
    [
      "e",
      "n"
    ],
    [
      "e",
      "r</w>"
    ],
    [
      "an",
      "d</w>"
    ],
    [
      "o",
      "r"
    ],
    [
      "o",
      "f</w>"
    ],
    [
      "o",
      "n</w>"
    ],
    [
      "in",
      "g</w>"
    ],
    [
      "i",
      "n</w>"
    ],
    [
      "o",
      "u"
    ],
    [
      "t",
      "o</w>"
    ],
    [
      "a",
      "l"
    ],
    [
      "a",
      "s</w>"
    ],
    [
      "i",
      "t"
    ],
    [
      "s",
      "t"
    ],
    [
      "a",
      "t"
    ],
    [
      "e",
      "s</w>"
    ],
    [
      "r",
      "o"
    ],
    [
      "h",
      "i"
    ],
    [
      "a",
      "c"
    ],
    [
      "h",
      "e</w>"
    ],
    [
      "a",
      "l</w>"
    ],
    [
      "s",
      "i"
    ],
    [
      "a",
      "t</w>"
    ],
    [
      "a",
      "n</w>"
    ],
    [
      "e",
      "l"
    ],
    [
      "r",
      "i"
    ],
    [
      "o",
      "r</w>"
    ],
    [
      "s",
      "t</w>"
    ],
    [
      "e",
      "c"
    ],
    [
      "o",
      "m"
    ],
    [
      "w",
      "as</w>"
    ],
    [
      "i",
      "l"
    ],
    [
      "u",
      "r"
    ],
    [
      "a",
      "m"
    ],
    [
      "e",
      "n</w>"
    ],
    [
      "l",
      "i"
    ],
    [
      "d",
      "i"
    ],
    [
      "e",
      "a"
    ],
    [
      "ti",
      "on</w>"
    ],
    [
      "l",
      "y</w>"
    ],
    [
      "@",
      "-"
    ],
    [
      "@-",
      "@</w>"
    ],
    [
      "T",
      "he</w>"
    ],
    [
      "o",
      "l"
    ],
    [
      "i",
      "c"
    ],
    [
      "l",
      "a"
    ],
    [
      "l",
      "e</w>"
    ],
    [
      "e",
      "m"
    ],
    [
      "i",
      "s</w>"
    ],
    [
      "e",
      "s"
    ],
    [
      "r",
      "a"
    ],
    [
      "h",
      "a"
    ],
    [
      "'",
      "s</w>"
    ],
    [
      "u",
      "n"
    ],
    [
      "th",
      "at</w>"
    ],
    [
      "l",
      "o"
    ],
    [
      "it",
      "h</w>"
    ],
    [
      "f",
      "or</w>"
    ],
    [
      "i",
      "s"
    ],
    [
      "v",
      "e</w>"
    ],
    [
      "en",
      "t</w>"
    ],
    [
      "i",
      "r"
    ],
    [
      "e",
      "t"
    ],
    [
      "b",
      "y</w>"
    ],
    [
      "w",
      "ith</w>"
    ],
    [
      "e",
      "v"
    ],
    [
      "c",
      "h</w>"
    ],
    [
      "c",
      "h"
    ],
    [
      "s",
      "u"
    ],
    [
      "c",
      "on"
    ],
    [
      "en",
      "t"
    ],
    [
      "er",
      "e</w>"
    ],
    [
      "a",
      "g"
    ],
    [
      "p",
      "o"
    ],
    [
      "a",
      "s"
    ],
    [
      "c",
      "e</w>"
    ],
    [
      "er",
      "s</w>"
    ],
    [
      "a",
      "d"
    ],
    [
      "1",
      "9"
    ],
    [
      "b",
      "e"
    ],
    [
      "p",
      "ro"
    ],
    [
      "hi",
      "s</w>"
    ],
    [
      "b",
      "u"
    ],
    [
      "f",
      "or"
    ],
    [
      "ou",
      "n"
    ],
    [
      "g",
      "h"
    ],
    [
      "d",
      "e"
    ],
    [
      "o",
      "v"
    ],
    [
      "c",
      "om"
    ],
    [
      "o",
      "w"
    ],
    [
      "w",
      "h"
    ],
    [
      "t",
      "h</w>"
    ],
    [
      "s",
      "e</w>"
    ],
    [
      "ro",
      "m</w>"
    ],
    [
      "th",
      "e"
    ],
    [
      "ti",
      "on"
    ],
    [
      "e",
      "x"
    ],
    [
      "a",
      "b"
    ],
    [
      "f",
      "rom</w>"
    ],
    [
      "t",
      "ed</w>"
    ],
    [
      "o",
      "p"
    ],
    [
      "s",
      "p"
    ],
    [
      "i",
      "t</w>"
    ],
    [
      "v",
      "i"
    ],
    [
      "a",
      "p"
    ],
    [
      "a",
      "tion</w>"
    ],
    [
      "s",
      "h"
    ],
    [
      "2",
      "0"
    ],
    [
      "t",
      "er</w>"
    ],
    [
      "t",
      "s</w>"
    ],
    [
      "w",
      "hi"
    ],
    [
      "n",
      "o"
    ],
    [
      "a",
      "y</w>"
    ],
    [
      "w",
      "ere</w>"
    ],
    [
      "e",
      "ar"
    ],
    [
      "d",
      "s</w>"
    ],
    [
      "i",
      "m"
    ],
    [
      "o",
      "o"
    ],
    [
      "th",
      "er</w>"
    ],
    [
      "r",
      "u"
    ],
    [
      "q",
      "u"
    ],
    [
      "d",
      "u"
    ],
    [
      "e",
      "p"
    ],
    [
      "at",
      "e</w>"
    ],
    [
      "l",
      "e"
    ],
    [
      "d",
      "ed</w>"
    ],
    [
      "p",
      "re"
    ],
    [
      "t",
      "er"
    ],
    [
      "p",
      "er"
    ],
    [
      "f",
      "f"
    ],
    [
      "l",
      "u"
    ],
    [
      "d",
      "ing</w>"
    ],
    [
      "at",
      "ed</w>"
    ],
    [
      "d",
      "e</w>"
    ],
    [
      "s",
      "ed</w>"
    ],
    [
      "it",
      "y</w>"
    ],
    [
      "in",
      "g"
    ],
    [
      "u",
      "l"
    ],
    [
      "l",
      "d</w>"
    ],
    [
      "ha",
      "d</w>"
    ],
    [
      "re",
      "c"
    ],
    [
      "am",
      "e</w>"
    ],
    [
      "c",
      "i"
    ],
    [
      "m",
      "a"
    ],
    [
      "m",
      "o"
    ],
    [
      "I",
      "n</w>"
    ],
    [
      "i",
      "r</w>"
    ],
    [
      "t",
      "a"
    ],
    [
      "whi",
      "ch</w>"
    ],
    [
      "s",
      "e"
    ],
    [
      "p",
      "l"
    ],
    [
      "on",
      "e</w>"
    ],
    [
      "n",
      "e"
    ],
    [
      "b",
      "er</w>"
    ],
    [
      "al",
      "l</w>"
    ],
    [
      "ar",
      "e</w>"
    ],
    [
      "b",
      "e</w>"
    ],
    [
      "r",
      "an"
    ],
    [
      "w",
      "e"
    ],
    [
      "p",
      "ar"
    ],
    [
      "g",
      "e</w>"
    ],
    [
      "al",
      "ly</w>"
    ],
    [
      "S",
      "t"
    ],
    [
      "ou",
      "t</w>"
    ],
    [
      "g",
      "u"
    ],
    [
      "g",
      "h</w>"
    ],
    [
      "a",
      "u"
    ],
    [
      "s",
      "o</w>"
    ],
    [
      "v",
      "er"
    ],
    [
      "tion",
      "s</w>"
    ],
    [
      "l",
      "ea"
    ],
    [
      "f",
      "ir"
    ],
    [
      "f",
      "i"
    ],
    [
      "u",
      "m"
    ],
    [
      "gh",
      "t</w>"
    ],
    [
      "it",
      "s</w>"
    ],
    [
      "in",
      "c"
    ],
    [
      "ti",
      "m"
    ],
    [
      "on",
      "g</w>"
    ],
    [
      "ar",
      "y</w>"
    ],
    [
      "s",
      "on</w>"
    ],
    [
      "s",
      "c"
    ],
    [
      "m",
      "an"
    ],
    [
      "a",
      "r</w>"
    ],
    [
      "w",
      "or"
    ],
    [
      "at",
      "t"
    ],
    [
      "p",
      "or"
    ],
    [
      "k",
      "e</w>"
    ],
    [
      "in",
      "e</w>"
    ],
    [
      "e",
      "t</w>"
    ],
    [
      "20",
      "0"
    ],
    [
      "the",
      "ir</w>"
    ],
    [
      "ou",
      "ld</w>"
    ],
    [
      "fir",
      "st</w>"
    ],
    [
      "si",
      "on</w>"
    ],
    [
      "ow",
      "n</w>"
    ],
    [
      "bu",
      "t</w>"
    ],
    [
      "al",
      "so</w>"
    ],
    [
      "@",
      "."
    ],
    [
      ",",
      "@</w>"
    ],
    [
      "T",
      "h"
    ],
    [
      "f",
      "ter</w>"
    ],
    [
      "ha",
      "ve</w>"
    ],
    [
      "inc",
      "lu"
    ],
    [
      "oun",
      "d</w>"
    ],
    [
      "wh",
      "o</w>"
    ],
    [
      "du",
      "c"
    ],
    [
      "ea",
      "r</w>"
    ],
    [
      "em",
      "ber</w>"
    ],
    [
      "th",
      "is</w>"
    ],
    [
      "be",
      "en</w>"
    ],
    [
      "t",
      "ur"
    ],
    [
      "ac",
      "k</w>"
    ],
    [
      "p",
      "la"
    ],
    [
      "1",
      "8"
    ],
    [
      "lo",
      "w"
    ],
    [
      "en",
      "ce</w>"
    ],
    [
      "ag",
      "e</w>"
    ],
    [
      "m",
      "ent</w>"
    ],
    [
      "d",
      "er</w>"
    ],
    [
      "tion",
      "al</w>"
    ],
    [
      "s",
      "hi"
    ],
    [
      "ab",
      "le</w>"
    ],
    [
      "ov",
      "er"
    ],
    [
      "o",
      "ther</w>"
    ],
    [
      "U",
      "n"
    ],
    [
      "e",
      "st"
    ],
    [
      "l",
      "and</w>"
    ],
    [
      "in",
      "to</w>"
    ],
    [
      "i",
      "es</w>"
    ],
    [
      "ent",
      "s</w>"
    ],
    [
      "19",
      "9"
    ],
    [
      "el",
      "l</w>"
    ],
    [
      "sp",
      "ec"
    ],
    [
      "a",
      "y"
    ],
    [
      "et",
      "we"
    ],
    [
      "ff",
      "ic"
    ],
    [
      "ti",
      "c</w>"
    ],
    [
      "r",
      "it"
    ],
    [
      "M",
      "ar"
    ],
    [
      "v",
      "ed</w>"
    ],
    [
      "k",
      "ing</w>"
    ],
    [
      "ne",
      "w</w>"
    ],
    [
      "u",
      "p</w>"
    ],
    [
      "or",
      "y</w>"
    ],
    [
      "g",
      "ra"
    ],
    [
      "re",
      "lea"
    ],
    [
      "on",
      "ly</w>"
    ],
    [
      "il",
      "li"
    ],
    [
      "su",
      "ch</w>"
    ],
    [
      "per",
      "for"
    ],
    [
      "ep",
      "is"
    ],
    [
      "au",
      "se</w>"
    ],
    [
      "C",
      "om"
    ],
    [
      "di",
      "rec"
    ],
    [
      "B",
      "ri"
    ],
    [
      "b",
      "as"
    ],
    [
      "ch",
      "an"
    ],
    [
      "ta",
      "in</w>"
    ],
    [
      "2",
      "0</w>"
    ],
    [
      "I",
      "I</w>"
    ],
    [
      "ap",
      "pro"
    ],
    [
      "com",
      "pl"
    ],
    [
      "at",
      "h</w>"
    ],
    [
      "F",
      "ran"
    ],
    [
      "S",
      "he</w>"
    ],
    [
      "J",
      "un"
    ],
    [
      "ma",
      "j"
    ],
    [
      "se",
      "qu"
    ],
    [
      "W",
      "ar</w>"
    ],
    [
      "P",
      "ro"
    ],
    [
      "vi",
      "de"
    ],
    [
      "po",
      "sed</w>"
    ],
    [
      "por",
      "ted</w>"
    ],
    [
      "ru",
      "ary</w>"
    ],
    [
      "gh",
      "ts</w>"
    ],
    [
      "E",
      "x"
    ],
    [
      "am",
      "ong</w>"
    ],
    [
      "St",
      "ate</w>"
    ],
    [
      "4",
      "5</w>"
    ],
    [
      "ol",
      "le"
    ],
    [
      "3",
      "1</w>"
    ],
    [
      "es",
      "tim"
    ],
    [
      "z",
      "ation</w>"
    ],
    [
      "K",
      "ing"
    ],
    [
      "ex",
      "pre"
    ],
    [
      "ad",
      "ded</w>"
    ],
    [
      "6",
      "4</w>"
    ],
    [
      "V",
      "ir"
    ],
    [
      "N",
      "Y</w>"
    ],
    [
      "@.",
      "@</w>"
    ],
    [
      "@",
      ",@</w>"
    ],
    [
      "ou",
      "gh</w>"
    ],
    [
      "no",
      "t</w>"
    ],
    [
      "0",
      "0</w>"
    ],
    [
      "20",
      "1"
    ],
    [
      "C",
      "h"
    ],
    [
      "con",
      "t"
    ],
    [
      "ar",
      "d</w>"
    ],
    [
      "w",
      "o</w>"
    ],
    [
      "ti",
      "ve</w>"
    ],
    [
      "the",
      "y</w>"
    ],
    [
      "tim",
      "e</w>"
    ],
    [
      "I",
      "n"
    ],
    [
      "com",
      "m"
    ],
    [
      "a",
      "fter</w>"
    ],
    [
      "d",
      "er"
    ],
    [
      "pla",
      "y"
    ],
    [
      "e",
      "l</w>"
    ],
    [
      "shi",
      "p</w>"
    ],
    [
      "l",
      "ed</w>"
    ],
    [
      "o",
      "c"
    ],
    [
      "ov",
      "er</w>"
    ],
    [
      "es",
      "s</w>"
    ],
    [
      "ur",
      "ing</w>"
    ],
    [
      "ab",
      "out</w>"
    ],
    [
      "pre",
      "s"
    ],
    [
      "b",
      "ec"
    ],
    [
      "al",
      "i"
    ],
    [
      "etwe",
      "en</w>"
    ],
    [
      "whi",
      "le</w>"
    ],
    [
      "mo",
      "st</w>"
    ],
    [
      "in",
      "ter"
    ],
    [
      "p",
      "u"
    ],
    [
      "an",
      "ce</w>"
    ],
    [
      "pro",
      "duc"
    ],
    [
      "r",
      "ac"
    ],
    [
      "wh",
      "ere</w>"
    ],
    [
      "si",
      "g"
    ],
    [
      "ol",
      "low"
    ],
    [
      "hi",
      "m</w>"
    ],
    [
      "st",
      "ru"
    ],
    [
      "f",
      "il"
    ],
    [
      "at",
      "es</w>"
    ],
    [
      "ea",
      "son</w>"
    ],
    [
      "T",
      "his</w>"
    ],
    [
      "oo",
      "k</w>"
    ],
    [
      "be",
      "for"
    ],
    [
      "um",
      "ber</w>"
    ],
    [
      "O",
      "n</w>"
    ],
    [
      "inclu",
      "ding</w>"
    ],
    [
      "em",
      "ent</w>"
    ],
    [
      "th",
      "re"
    ],
    [
      "ow",
      "ev"
    ],
    [
      "rec",
      "or"
    ],
    [
      "19",
      "8"
    ],
    [
      "Un",
      "it"
    ],
    [
      "li",
      "sh"
    ],
    [
      "lo",
      "w</w>"
    ],
    [
      "ic",
      "al</w>"
    ],
    [
      "ear",
      "ly</w>"
    ],
    [
      "relea",
      "sed</w>"
    ],
    [
      "illi",
      "on</w>"
    ],
    [
      "la",
      "r</w>"
    ],
    [
      "un",
      "der</w>"
    ],
    [
      "el",
      "op"
    ],
    [
      "en",
      "ded</w>"
    ],
    [
      "is",
      "h</w>"
    ],
    [
      "U",
      "S</w>"
    ],
    [
      "compl",
      "et"
    ],
    [
      "wor",
      "k"
    ],
    [
      "ri",
      "v"
    ],
    [
      ".",
      "."
    ],
    [
      "di",
      "sc"
    ],
    [
      "Mar",
      "ch</w>"
    ],
    [
      "S",
      "ep"
    ],
    [
      "perfor",
      "man"
    ],
    [
      "spec",
      "ies</w>"
    ],
    [
      "ma",
      "in</w>"
    ],
    [
      "lu",
      "b</w>"
    ],
    [
      "vi",
      "sion</w>"
    ],
    [
      "2",
      "5</w>"
    ],
    [
      "sp",
      "on"
    ],
    [
      "maj",
      "or</w>"
    ],
    [
      "de",
      "ath</w>"
    ],
    [
      "M",
      "ay</w>"
    ],
    [
      "J",
      "ap"
    ],
    [
      "ex",
      "per"
    ],
    [
      "200",
      "9</w>"
    ],
    [
      "ta",
      "ke</w>"
    ],
    [
      "H",
      "is</w>"
    ],
    [
      "chan",
      "ge</w>"
    ],
    [
      "B",
      "ro"
    ],
    [
      "qu",
      "ir"
    ],
    [
      "18",
      "9"
    ],
    [
      "att",
      "ack</w>"
    ],
    [
      "x",
      "im"
    ],
    [
      "ul",
      "tur"
    ],
    [
      "fi",
      "c</w>"
    ],
    [
      "gh",
      "ter</w>"
    ],
    [
      "ou",
      "r</w>"
    ],
    [
      "t",
      "wo</w>"
    ],
    [
      "h",
      "as</w>"
    ],
    [
      "ti",
      "c"
    ],
    [
      "om",
      "e</w>"
    ],
    [
      "w",
      "ould</w>"
    ],
    [
      "e",
      "st</w>"
    ],
    [
      "at",
      "er</w>"
    ],
    [
      "b",
      "o"
    ],
    [
      "s",
      "h</w>"
    ],
    [
      "wh",
      "en</w>"
    ],
    [
      "el",
      "y</w>"
    ],
    [
      "A",
      "l"
    ],
    [
      "I",
      "t</w>"
    ],
    [
      "com",
      "p"
    ],
    [
      "sig",
      "n"
    ],
    [
      "for",
      "m"
    ],
    [
      "i",
      "c</w>"
    ],
    [
      "ch",
      "ar"
    ],
    [
      "0",
      "00</w>"
    ],
    [
      "ag",
      "a"
    ],
    [
      "d",
      "uring</w>"
    ],
    [
      "pl",
      "ac"
    ],
    [
      "on",
      "s</w>"
    ],
    [
      "ev",
      "er"
    ],
    [
      "st",
      "r"
    ],
    [
      "fil",
      "m</w>"
    ],
    [
      "u",
      "sed</w>"
    ],
    [
      "f",
      "in"
    ],
    [
      "th",
      "ough</w>"
    ],
    [
      "ol",
      "d</w>"
    ],
    [
      "bec",
      "ame</w>"
    ],
    [
      "wor",
      "k</w>"
    ],
    [
      "bu",
      "il"
    ],
    [
      "y",
      "ear</w>"
    ],
    [
      "be",
      "g"
    ],
    [
      "si",
      "de</w>"
    ],
    [
      "v",
      "ic"
    ],
    [
      "Unit",
      "ed</w>"
    ],
    [
      "ec",
      "ted</w>"
    ],
    [
      "1",
      "0</w>"
    ],
    [
      "19",
      "4"
    ],
    [
      "al",
      "led</w>"
    ],
    [
      "ollow",
      "ing</w>"
    ],
    [
      "hi",
      "gh"
    ],
    [
      "N",
      "or"
    ],
    [
      "St",
      "ates</w>"
    ],
    [
      "am",
      "es</w>"
    ],
    [
      "li",
      "ke</w>"
    ],
    [
      "no",
      "w</w>"
    ],
    [
      "op",
      "le</w>"
    ],
    [
      "H",
      "owev"
    ],
    [
      "re",
      "tur"
    ],
    [
      "oo",
      "l</w>"
    ],
    [
      "ov",
      "ember</w>"
    ],
    [
      "inclu",
      "ded</w>"
    ],
    [
      "..",
      ".</w>"
    ],
    [
      "po",
      "pu"
    ],
    [
      "fi",
      "ve</w>"
    ],
    [
      "ent",
      "ur"
    ],
    [
      "cont",
      "ro"
    ],
    [
      "pro",
      "vi"
    ],
    [
      "In",
      "di"
    ],
    [
      "un",
      "der"
    ],
    [
      "an",
      "other</w>"
    ],
    [
      "relea",
      "se</w>"
    ],
    [
      "W",
      "illi"
    ],
    [
      "la",
      "tion</w>"
    ],
    [
      "em",
      "ents</w>"
    ],
    [
      "Ch",
      "ri"
    ],
    [
      "con",
      "stru"
    ],
    [
      "vide",
      "o</w>"
    ],
    [
      "elop",
      "ment</w>"
    ],
    [
      "est",
      "ab"
    ],
    [
      ".",
      "S"
    ],
    [
      "Th",
      "ere</w>"
    ],
    [
      "ci",
      "al</w>"
    ],
    [
      "is",
      "su"
    ],
    [
      "200",
      "8</w>"
    ],
    [
      "ver",
      "sion</w>"
    ],
    [
      "201",
      "1</w>"
    ],
    [
      "ta",
      "k"
    ],
    [
      "C",
      "oun"
    ],
    [
      "2",
      "4</w>"
    ],
    [
      "sh",
      "ow"
    ],
    [
      "performan",
      "ce</w>"
    ],
    [
      "sc",
      "en"
    ],
    [
      "it",
      "ary</w>"
    ],
    [
      "olle",
      "ge</w>"
    ],
    [
      "ma",
      "king</w>"
    ],
    [
      "B",
      "att"
    ],
    [
      "ali",
      "an</w>"
    ],
    [
      "im",
      "por"
    ],
    [
      "L",
      "ea"
    ],
    [
      "et",
      "ter</w>"
    ],
    [
      "pres",
      "ent</w>"
    ],
    [
      "18",
      "8"
    ],
    [
      "F",
      "or</w>"
    ],
    [
      "7",
      "5</w>"
    ],
    [
      "ul",
      "ly</w>"
    ]
  ],
  "config": {
    "train_text": "data/train.txt",
    "eval_text": "data/eval.txt",
    "vocab_size": 8000,
    "pretokenize": "whitespace",
    "lowercase": false,
    "max_train_lines": null,
    "max_eval_lines": null,
    "max_merges": null,
    "tau": 10,
    "alpha": 0.75,
    "sigma": 1.0,
    "batch_size": 100,
    "eig_k": 8,
    "eig_eps": 1e-08,
    "seed": 0,
    "beta": 0.05,
    "sigma_auto": false,
    "deterministic_ties": false,
    "bpe_warmstart": 200,
    "num_seeds": 1,
    "checkpoint_dir": "out_checkpoints",
    "checkpoint_every": 500,
    "train_lm": true,
    "lm_epochs": 2,
    "lm_batch_size": 16,
    "lm_block_size": 128,
    "lm_dim": 128,
    "lm_heads": 4,
    "lm_layers": 2,
    "lm_lr": 0.0003,
    "out_json": null
  }
}